window.CONV_AE_PRETRAINED_WEIGHTS = "hlcAAHsid2VpZ2h0U3BlY3MiOlt7Im5hbWUiOiJ0ZmpzX2NvbnYyZF8xMDMud2VpZ2h0Iiwic2hhcGUiOlszLDMsMSwxNl0sImR0eXBlIjoiZmxvYXQzMiIsIm9mZnNldCI6MH0seyJuYW1lIjoidGZqc19jb252MmRfMTAzLmJpYXMiLCJzaGFwZSI6WzE2XSwiZHR5cGUiOiJmbG9hdDMyIiwib2Zmc2V0Ijo1NzZ9LHsibmFtZSI6InRmanNfY29udjJkXzEwNS53ZWlnaHQiLCJzaGFwZSI6WzMsMywxNiwzMl0sImR0eXBlIjoiZmxvYXQzMiIsIm9mZnNldCI6NjQwfSx7Im5hbWUiOiJ0ZmpzX2NvbnYyZF8xMDUuYmlhcyIsInNoYXBlIjpbMzJdLCJkdHlwZSI6ImZsb2F0MzIiLCJvZmZzZXQiOjE5MDcyfSx7Im5hbWUiOiJ0ZmpzX2NvbnYyZF8xMDgud2VpZ2h0Iiwic2hhcGUiOlszLDMsMzIsMTZdLCJkdHlwZSI6ImZsb2F0MzIiLCJvZmZzZXQiOjE5MjAwfSx7Im5hbWUiOiJ0ZmpzX2NvbnYyZF8xMDguYmlhcyIsInNoYXBlIjpbMTZdLCJkdHlwZSI6ImZsb2F0MzIiLCJvZmZzZXQiOjM3NjMyfSx7Im5hbWUiOiJ0ZmpzX2NvbnYyZF8xMTAud2VpZ2h0Iiwic2hhcGUiOlsxLDEsMTYsMV0sImR0eXBlIjoiZmxvYXQzMiIsIm9mZnNldCI6Mzc2OTZ9LHsibmFtZSI6InRmanNfY29udjJkXzExMC5iaWFzIiwic2hhcGUiOlsxXSwiZHR5cGUiOiJmbG9hdDMyIiwib2Zmc2V0IjozNzc2MH1dLCJjb25maWciOnt9LCJtZXRyaWNzIjp7Im1hZSI6MC4wMjcwMjcwNzIzODQ5NTM1LCJtc2UiOjAuMDAyNzY3MDI0NTYxNzYyODA5OCwidGVzdE1hZSI6MC4wMjcwMjcwNzIzODQ5NTM1LCJ0ZXN0Um1zZSI6MC4wNTI2MDI1MTQ3ODU1Mzg2MiwiYmVzdEVwb2NoIjoyMDAsImJlc3RWYWxMb3NzIjowLjAwMjQ5MDI2MDAxNzQxNDg4OH0sImVwb2NocyI6W3siZXBvY2giOjEsInRyYWluX2xvc3MiOjAuMTUwMDc2MjMyMDIyNzA5MywidmFsX2xvc3MiOjAuMTE5OTIwMzMzMjI2NTIxOCwibHIiOjAuMDAxLCJpbXByb3ZlZCI6dHJ1ZX0seyJlcG9jaCI6MiwidHJhaW5fbG9zcyI6MC4wNzkxNDI4NTM0MTA3MDc1OCwidmFsX2xvc3MiOjAuMDM3Mjg0MjQwMTI2NjA5OCwibHIiOjAuMDAxLCJpbXByb3ZlZCI6dHJ1ZX0seyJlcG9jaCI6MywidHJhaW5fbG9zcyI6MC4wMjQ4ODU1MDA2Nzc3NTc3OTIsInZhbF9sb3NzIjowLjAxNTQ4ODE3NDc0Mzk1MDM2NywibHIiOjAuMDAxLCJpbXByb3ZlZCI6dHJ1ZX0seyJlcG9jaCI6NCwidHJhaW5fbG9zcyI6MC4wMTI4NTA2MDk0NTI3NzQxMjgsInZhbF9sb3NzIjowLjAwOTgwMzIzNTUzMDg1MzI3MSwibHIiOjAuMDAxLCJpbXByb3ZlZCI6dHJ1ZX0seyJlcG9jaCI6NSwidHJhaW5fbG9zcyI6MC4wMDkyMTE2MzQ2OTk2NjkxNDksInZhbF9sb3NzIjowLjAwNzgyNDg4ODkxODU0ODgyMiwibHIiOjAuMDAxLCJpbXByb3ZlZCI6dHJ1ZX0seyJlcG9jaCI6NiwidHJhaW5fbG9zcyI6MC4wMDc2NDMyOTYyMDIyMzA3ODUsInZhbF9sb3NzIjowLjAwNjc5NTc5NjEwMDA1MDIxMSwibHIiOjAuMDAxLCJpbXByb3ZlZCI6dHJ1ZX0seyJlcG9jaCI6NywidHJhaW5fbG9zcyI6MC4wMDY3MTEwMjI0NjI2OTU4MzcsInZhbF9sb3NzIjowLjAwNjEwNjk1OTAzNDk5OTIxMSwibHIiOjAuMDAxLCJpbXByb3ZlZCI6dHJ1ZX0seyJlcG9jaCI6OCwidHJhaW5fbG9zcyI6MC4wMDYwNjYxOTkzMTQ0NzAwOTMsInZhbF9sb3NzIjowLjAwNTU2NTIwNjk4NTkyMDY2OCwibHIiOjAuMDAxLCJpbXByb3ZlZCI6dHJ1ZX0seyJlcG9jaCI6OSwidHJhaW5fbG9zcyI6MC4wMDU1ODU3MjMzNzU0ODc2NTksInZhbF9sb3NzIjowLjAwNTE2MzU2Mzg4MTA2OTQyMiwibHIiOjAuMDAxLCJpbXByb3ZlZCI6dHJ1ZX0seyJlcG9jaCI6MTAsInRyYWluX2xvc3MiOjAuMDA1MjcwOTg0NDYzNjAwNjQ5LCJ2YWxfbG9zcyI6MC4wMDQ4NzQyMDY3Njg5Njk2OTUsImxyIjowLjAwMSwiaW1wcm92ZWQiOnRydWV9LHsiZXBvY2giOjExLCJ0cmFpbl9sb3NzIjowLjAwNTAwNDQzMzk5MjYyOTI1LCJ2YWxfbG9zcyI6MC4wMDQ2NjczNjY4NTQ4NDY0Nzc1LCJsciI6MC4wMDEsImltcHJvdmVkIjp0cnVlfSx7ImVwb2NoIjoxMiwidHJhaW5fbG9zcyI6MC4wMDQ4MzMxMTgxODgwOTE0NSwidmFsX2xvc3MiOjAuMDA0NTEwMDE0MDg1MDk5MTAxLCJsciI6MC4wMDEsImltcHJvdmVkIjp0cnVlfSx7ImVwb2NoIjoxMywidHJhaW5fbG9zcyI6MC4wMDQ2ODg0NDA0NTk4ODM4NzUsInZhbF9sb3NzIjowLjAwNDM2Nzc5MTg5MjMzOTc4NiwibHIiOjAuMDAxLCJpbXByb3ZlZCI6dHJ1ZX0seyJlcG9jaCI6MTQsInRyYWluX2xvc3MiOjAuMDA0NTUyODY3MzQxMTY1NzQxLCJ2YWxfbG9zcyI6MC4wMDQyNTgwOTA4NjMwMDQzMjcsImxyIjowLjAwMSwiaW1wcm92ZWQiOnRydWV9LHsiZXBvY2giOjE1LCJ0cmFpbl9sb3NzIjowLjAwNDQ3NTc1MTcxMDY0MTcxNiwidmFsX2xvc3MiOjAuMDA0MTc5NTQ0MjAzNjA0MjYxLCJsciI6MC4wMDEsImltcHJvdmVkIjp0cnVlfSx7ImVwb2NoIjoxNiwidHJhaW5fbG9zcyI6MC4wMDQzNzk0NTA4NDgwMTU2NDYsInZhbF9sb3NzIjowLjAwNDA4Mzc5NTYyODE5OTk3NSwibHIiOjAuMDAxLCJpbXByb3ZlZCI6dHJ1ZX0seyJlcG9jaCI6MTcsInRyYWluX2xvc3MiOjAuMDA0Mjk0NjA3NTU1NDkzNzEyLCJ2YWxfbG9zcyI6MC4wMDM5OTY2ODcwMDk5MzA2MTEsImxyIjowLjAwMSwiaW1wcm92ZWQiOnRydWV9LHsiZXBvY2giOjE4LCJ0cmFpbl9sb3NzIjowLjAwNDE5NTg2ODY0NTU4NzcyOSwidmFsX2xvc3MiOjAuMDAzOTI3NTEzODc5NDEzNDA2LCJsciI6MC4wMDEsImltcHJvdmVkIjp0cnVlfSx7ImVwb2NoIjoxOSwidHJhaW5fbG9zcyI6MC4wMDQxNDYzNTkxNDk0NzAwOTcsInZhbF9sb3NzIjowLjAwMzg3MzQyMDk1Njg1NTAxOSwibHIiOjAuMDAxLCJpbXByb3ZlZCI6dHJ1ZX0seyJlcG9jaCI6MjAsInRyYWluX2xvc3MiOjAuMDA0MDgwNzM2NzI1MDczNzIxLCJ2YWxfbG9zcyI6MC4wMDM4MDY3MzQ3NjgwNTI4OTYsImxyIjowLjAwMSwiaW1wcm92ZWQiOnRydWV9LHsiZXBvY2giOjIxLCJ0cmFpbl9sb3NzIjowLjAwNDAyNzczMTMxNTY0NjczNCwidmFsX2xvc3MiOjAuMDAzNzUxNjc4MjM3MDcwNjQsImxyIjowLjAwMSwiaW1wcm92ZWQiOnRydWV9LHsiZXBvY2giOjIyLCJ0cmFpbl9sb3NzIjowLjAwMzk3NDgyMDA4NjIxNTEwNSwidmFsX2xvc3MiOjAuMDAzNjk1MTA0NDI2MzkzOTA2LCJsciI6MC4wMDEsImltcHJvdmVkIjp0cnVlfSx7ImVwb2NoIjoyMywidHJhaW5fbG9zcyI6MC4wMDM5MTQ3MzM3NTM2NDMxMDIsInZhbF9sb3NzIjowLjAwMzY0ODM1OTU2MTMzOTAyMDcsImxyIjowLjAwMSwiaW1wcm92ZWQiOnRydWV9LHsiZXBvY2giOjI0LCJ0cmFpbl9sb3NzIjowLjAwMzg1NTk2NTIyOTU3OTE0NCwidmFsX2xvc3MiOjAuMDAzNjExODM3MTI1NjkzNzU4NSwibHIiOjAuMDAxLCJpbXByb3ZlZCI6dHJ1ZX0seyJlcG9jaCI6MjUsInRyYWluX2xvc3MiOjAuMDAzODIzOTIzMTY2OTQ0NzQ4NywidmFsX2xvc3MiOjAuMDAzNTUzNDcyNjE0NTM2NjgyNiwibHIiOjAuMDAxLCJpbXByb3ZlZCI6dHJ1ZX0seyJlcG9jaCI6MjYsInRyYWluX2xvc3MiOjAuMDAzNzY3OTU2NzU5Njc3MTY1LCJ2YWxfbG9zcyI6MC4wMDM1MzAxOTc1NDQwMjMzOTQ2LCJsciI6MC4wMDEsImltcHJvdmVkIjp0cnVlfSx7ImVwb2NoIjoyNywidHJhaW5fbG9zcyI6MC4wMDM3NTgzNDQwNzQ5MTgxNjQsInZhbF9sb3NzIjowLjAwMzQ3Mjk2NDM1Njk2MzgzMzMsImxyIjowLjAwMSwiaW1wcm92ZWQiOnRydWV9LHsiZXBvY2giOjI4LCJ0cmFpbl9sb3NzIjowLjAwMzcxMTA4MjQwMzQ0NDU4MTcsInZhbF9sb3NzIjowLjAwMzQzNDU0OTE2MzQwNjA5NCwibHIiOjAuMDAxLCJpbXByb3ZlZCI6dHJ1ZX0seyJlcG9jaCI6MjksInRyYWluX2xvc3MiOjAuMDAzNjU4OTIwODc1NzUwNDgyLCJ2YWxfbG9zcyI6MC4wMDMzOTg1OTIxOTU3ODQwNTI0LCJsciI6MC4wMDEsImltcHJvdmVkIjp0cnVlfSx7ImVwb2NoIjozMCwidHJhaW5fbG9zcyI6MC4wMDM2MjA4OTYyMjk3Mjc0MDA1LCJ2YWxfbG9zcyI6MC4wMDMzNjMyMjU2MDkwNjQxMDIsImxyIjowLjAwMSwiaW1wcm92ZWQiOnRydWV9LHsiZXBvY2giOjMxLCJ0cmFpbl9sb3NzIjowLjAwMzU5Mjg2NzIxMDE5Njk1MiwidmFsX2xvc3MiOjAuMDAzMzMyMDgwNzA3NTc0ODg0LCJsciI6MC4wMDEsImltcHJvdmVkIjp0cnVlfSx7ImVwb2NoIjozMiwidHJhaW5fbG9zcyI6MC4wMDM1NDMxODYyMzQzMTAyNjk0LCJ2YWxfbG9zcyI6MC4wMDMzMDI0MjA3MjIzMjA2NzYsImxyIjowLjAwMSwiaW1wcm92ZWQiOnRydWV9LHsiZXBvY2giOjMzLCJ0cmFpbl9sb3NzIjowLjAwMzUxODgxNjAzMTkyOTUxOTUsInZhbF9sb3NzIjowLjAwMzI3Mzk2NTg2ODQ3ODAyLCJsciI6MC4wMDEsImltcHJvdmVkIjp0cnVlfSx7ImVwb2NoIjozNCwidHJhaW5fbG9zcyI6MC4wMDM0OTQ0MjgyODk2NDAyODEsInZhbF9sb3NzIjowLjAwMzI0OTg1NDAwNDYzMTQzOTcsImxyIjowLjAwMSwiaW1wcm92ZWQiOnRydWV9LHsiZXBvY2giOjM1LCJ0cmFpbl9sb3NzIjowLjAwMzQ3NTA1MTIwNTA4Nzg2NywidmFsX2xvc3MiOjAuMDAzMjI0OTE4Nzc0MDE4Njg1LCJsciI6MC4wMDEsImltcHJvdmVkIjp0cnVlfSx7ImVwb2NoIjozNiwidHJhaW5fbG9zcyI6MC4wMDM0NTc4NjU4NTg4NjQ0NTMsInZhbF9sb3NzIjowLjAwMzIwMjUwMTM3Mzk4NjQwMywibHIiOjAuMDAxLCJpbXByb3ZlZCI6dHJ1ZX0seyJlcG9jaCI6MzcsInRyYWluX2xvc3MiOjAuMDAzNDE2OTM2MDgxNDIwMjE2MiwidmFsX2xvc3MiOjAuMDAzMTc3NjgxMjM5MzIxODI4LCJsciI6MC4wMDEsImltcHJvdmVkIjp0cnVlfSx7ImVwb2NoIjozOCwidHJhaW5fbG9zcyI6MC4wMDMzOTc0NDcwNzAwMDMzODQsInZhbF9sb3NzIjowLjAwMzE1OTExOTUxNDc0ODQ1NCwibHIiOjAuMDAxLCJpbXByb3ZlZCI6dHJ1ZX0seyJlcG9jaCI6MzksInRyYWluX2xvc3MiOjAuMDAzMzg2NjkzNDg5MjIwNDA3MywidmFsX2xvc3MiOjAuMDAzMTYwNjQ1NzE5NjE3NjA1LCJsciI6MC4wMDEsImltcHJvdmVkIjpmYWxzZX0seyJlcG9jaCI6NDAsInRyYWluX2xvc3MiOjAuMDAzMzQ5NDAzMDc0NjMyMDg4LCJ2YWxfbG9zcyI6MC4wMDMxMTY1OTc4MDk1MTgzNzcsImxyIjowLjAwMSwiaW1wcm92ZWQiOnRydWV9LHsiZXBvY2giOjQxLCJ0cmFpbl9sb3NzIjowLjAwMzM0MzM3ODY1OTMzNzc1OSwidmFsX2xvc3MiOjAuMDAzMDk2NjQxMjc0MTY5MDg3NCwibHIiOjAuMDAxLCJpbXByb3ZlZCI6dHJ1ZX0seyJlcG9jaCI6NDIsInRyYWluX2xvc3MiOjAuMDAzMzIyMTk3MDU5Njg2ODEzLCJ2YWxfbG9zcyI6MC4wMDMwODc3MTcxMDg0Mjg0NzgyLCJsciI6MC4wMDEsImltcHJvdmVkIjp0cnVlfSx7ImVwb2NoIjo0MywidHJhaW5fbG9zcyI6MC4wMDMzMDQ4MTIzNzE2MjczMjQzLCJ2YWxfbG9zcyI6MC4wMDMwNjY4MjY2MTE3NTcyNzg0LCJsciI6MC4wMDEsImltcHJvdmVkIjp0cnVlfSx7ImVwb2NoIjo0NCwidHJhaW5fbG9zcyI6MC4wMDMyODkwMzc0MDk5NjI4Nzk1LCJ2YWxfbG9zcyI6MC4wMDMwNDA0NjkwMTg3NDI0NDIsImxyIjowLjAwMSwiaW1wcm92ZWQiOnRydWV9LHsiZXBvY2giOjQ1LCJ0cmFpbl9sb3NzIjowLjAwMzI2NDM3MzgxNTEwMTA1NCwidmFsX2xvc3MiOjAuMDAzMDI2ODU3MjczNjUzMTQ5NiwibHIiOjAuMDAxLCJpbXByb3ZlZCI6dHJ1ZX0seyJlcG9jaCI6NDYsInRyYWluX2xvc3MiOjAuMDAzMjM1MDM3MTE1MTk1NTU5MywidmFsX2xvc3MiOjAuMDAzMDEyOTc1OTEwNjc4NTA2LCJsciI6MC4wMDEsImltcHJvdmVkIjp0cnVlfSx7ImVwb2NoIjo0NywidHJhaW5fbG9zcyI6MC4wMDMyMzgyODAxNzQ0MjU5MDY1LCJ2YWxfbG9zcyI6MC4wMDMwMDAyNzQyMjI5NjUwNDE3LCJsciI6MC4wMDEsImltcHJvdmVkIjp0cnVlfSx7ImVwb2NoIjo0OCwidHJhaW5fbG9zcyI6MC4wMDMyNDY1NDA4NTA0NDIzMTcsInZhbF9sb3NzIjowLjAwMjk3Nzg3NTY4MjIxNDg5NTcsImxyIjowLjAwMSwiaW1wcm92ZWQiOnRydWV9LHsiZXBvY2giOjQ5LCJ0cmFpbl9sb3NzIjowLjAwMzIwMzY0NTgwMTI3NTE0MDYsInZhbF9sb3NzIjowLjAwMjk2NDk5MTIyMjQ0NjE2MzYsImxyIjowLjAwMSwiaW1wcm92ZWQiOnRydWV9LHsiZXBvY2giOjUwLCJ0cmFpbl9sb3NzIjowLjAwMzE4Mjg0NjYyNTk1NjM5NiwidmFsX2xvc3MiOjAuMDAyOTUzODM5Nzk4NzY4MzYxNiwibHIiOjAuMDAxLCJpbXByb3ZlZCI6dHJ1ZX0seyJlcG9jaCI6NTEsInRyYWluX2xvc3MiOjAuMDAzMTc2NDE3Mzk1NzgyOTY3NiwidmFsX2xvc3MiOjAuMDAyOTM4NjUwNTQ4NDU4MDk5NCwibHIiOjAuMDAxLCJpbXByb3ZlZCI6dHJ1ZX0seyJlcG9jaCI6NTIsInRyYWluX2xvc3MiOjAuMDAzMTU4NDE5OTc1MDc5NTk2LCJ2YWxfbG9zcyI6MC4wMDI5MjY3NTYyMzk4MDY2MTI1LCJsciI6MC4wMDEsImltcHJvdmVkIjp0cnVlfSx7ImVwb2NoIjo1MywidHJhaW5fbG9zcyI6MC4wMDMxNTI3NTg4MTQzOTQ0NzQsInZhbF9sb3NzIjowLjAwMjkxMjM5MTUyMDQxNTc0MzMsImxyIjowLjAwMSwiaW1wcm92ZWQiOnRydWV9LHsiZXBvY2giOjU0LCJ0cmFpbl9sb3NzIjowLjAwMzE1NDUxODY1MTg3OTQ5NiwidmFsX2xvc3MiOjAuMDAyOTAxMTczODE3NjE0NzE0LCJsciI6MC4wMDEsImltcHJvdmVkIjp0cnVlfSx7ImVwb2NoIjo1NSwidHJhaW5fbG9zcyI6MC4wMDMxNDI3NjE3MzkxNzc4MzYsInZhbF9sb3NzIjowLjAwMjg5NTM3MTc1NTU4NTA3NDQsImxyIjowLjAwMSwiaW1wcm92ZWQiOnRydWV9LHsiZXBvY2giOjU2LCJ0cmFpbl9sb3NzIjowLjAwMzEyNzY0MTg5ODI2OTQ1NDUsInZhbF9sb3NzIjowLjAwMjg4ODkzMzQ0NTAxNjU0MywibHIiOjAuMDAxLCJpbXByb3ZlZCI6dHJ1ZX0seyJlcG9jaCI6NTcsInRyYWluX2xvc3MiOjAuMDAzMTMwNTQ0MTk2OTE3Nzc5LCJ2YWxfbG9zcyI6MC4wMDI4NjYzODg2ODY2MjIxODI0LCJsciI6MC4wMDEsImltcHJvdmVkIjp0cnVlfSx7ImVwb2NoIjo1OCwidHJhaW5fbG9zcyI6MC4wMDMxMjA1NTgzMTA1MDcwNzIsInZhbF9sb3NzIjowLjAwMjg1NjY3NzE2NTI1NDk1MDUsImxyIjowLjAwMSwiaW1wcm92ZWQiOnRydWV9LHsiZXBvY2giOjU5LCJ0cmFpbl9sb3NzIjowLjAwMzEwMTQxOTI0MzU0NzY1MTUsInZhbF9sb3NzIjowLjAwMjg0OTcxNTk5NDY3MDk4NywibHIiOjAuMDAxLCJpbXByb3ZlZCI6dHJ1ZX0seyJlcG9jaCI6NjAsInRyYWluX2xvc3MiOjAuMDAzMDY3MDE4NTQxODE3ODY0LCJ2YWxfbG9zcyI6MC4wMDI4MzYxMjc2ODc4NjY0ODksImxyIjowLjAwMSwiaW1wcm92ZWQiOnRydWV9LHsiZXBvY2giOjYxLCJ0cmFpbl9sb3NzIjowLjAwMzA3NjY0MTUyMjg2NTMyODUsInZhbF9sb3NzIjowLjAwMjg0MTc3ODY0MjgwODM5NzgsImxyIjowLjAwMSwiaW1wcm92ZWQiOmZhbHNlfSx7ImVwb2NoIjo2MiwidHJhaW5fbG9zcyI6MC4wMDMwNjEyMjYyOTc0ODAzNjUsInZhbF9sb3NzIjowLjAwMjgxODA0NTQzOTE5ODYxMywibHIiOjAuMDAxLCJpbXByb3ZlZCI6dHJ1ZX0seyJlcG9jaCI6NjMsInRyYWluX2xvc3MiOjAuMDAzMDQ2MzYwOTUzNDAwNTMyMywidmFsX2xvc3MiOjAuMDAyODA5NTkxOTc5NDA5MjU3NCwibHIiOjAuMDAxLCJpbXByb3ZlZCI6dHJ1ZX0seyJlcG9jaCI6NjQsInRyYWluX2xvc3MiOjAuMDAzMDM2MzQ0Mjk0NTM5NzU2LCJ2YWxfbG9zcyI6MC4wMDI4MDU5NjMzOTE0MzgxMjY2LCJsciI6MC4wMDEsImltcHJvdmVkIjp0cnVlfSx7ImVwb2NoIjo2NSwidHJhaW5fbG9zcyI6MC4wMDMwMzYyMDMyMTIxMDQ3Mzc4LCJ2YWxfbG9zcyI6MC4wMDI3ODgzNTI0Njk2MDMyMjA1LCJsciI6MC4wMDEsImltcHJvdmVkIjp0cnVlfSx7ImVwb2NoIjo2NiwidHJhaW5fbG9zcyI6MC4wMDMwMTM0Nzg1NzkxMDMxMTg3LCJ2YWxfbG9zcyI6MC4wMDI3NzY5MzMwNTc4NTQ1NzMsImxyIjowLjAwMSwiaW1wcm92ZWQiOnRydWV9LHsiZXBvY2giOjY3LCJ0cmFpbl9sb3NzIjowLjAwMzAwNTU1NjAxMTk4NjQwMTQsInZhbF9sb3NzIjowLjAwMjc3NjUzMTY1NzgyNDkxMzUsImxyIjowLjAwMSwiaW1wcm92ZWQiOnRydWV9LHsiZXBvY2giOjY4LCJ0cmFpbl9sb3NzIjowLjAwMzAxMTExNTE2Njk3OTUzMTMsInZhbF9sb3NzIjowLjAwMjc2MzI2NDQyNDQ3ODAxNDUsImxyIjowLjAwMSwiaW1wcm92ZWQiOnRydWV9LHsiZXBvY2giOjY5LCJ0cmFpbl9sb3NzIjowLjAwMzAyMzc1NjM3MDQ2NTc4ODUsInZhbF9sb3NzIjowLjAwMjc2MzEzNDY2MDE5OTI4NDYsImxyIjowLjAwMSwiaW1wcm92ZWQiOnRydWV9LHsiZXBvY2giOjcwLCJ0cmFpbl9sb3NzIjowLjAwMjk4NzE0OTA1NTExNTg3ODYsInZhbF9sb3NzIjowLjAwMjc0NDQwNDc1NDI5MDk3OCwibHIiOjAuMDAxLCJpbXByb3ZlZCI6dHJ1ZX0seyJlcG9jaCI6NzEsInRyYWluX2xvc3MiOjAuMDAyOTkzMTg1OTEzOTE0NjA4LCJ2YWxfbG9zcyI6MC4wMDI3Mzg3MDIxODg1NTYzOTMsImxyIjowLjAwMSwiaW1wcm92ZWQiOnRydWV9LHsiZXBvY2giOjcyLCJ0cmFpbl9sb3NzIjowLjAwMjk5MzE2MDQwNjAyNDA5MiwidmFsX2xvc3MiOjAuMDAyNzI5ODQzNzU4NjY3NTA4NiwibHIiOjAuMDAxLCJpbXByb3ZlZCI6dHJ1ZX0seyJlcG9jaCI6NzMsInRyYWluX2xvc3MiOjAuMDAyOTk3MjI1Mjc5ODE2MzIzLCJ2YWxfbG9zcyI6MC4wMDI3MjY0MjkwNjQ0NDc2ODEsImxyIjowLjAwMSwiaW1wcm92ZWQiOnRydWV9LHsiZXBvY2giOjc0LCJ0cmFpbl9sb3NzIjowLjAwMjk1NTU2Mjk5MTI5NzA3OTMsInZhbF9sb3NzIjowLjAwMjcxNjY3Nzk2MTg3MTAyOCwibHIiOjAuMDAxLCJpbXByb3ZlZCI6dHJ1ZX0seyJlcG9jaCI6NzUsInRyYWluX2xvc3MiOjAuMDAyOTU1MzU5NTc0OTI0NzQwNSwidmFsX2xvc3MiOjAuMDAyNzExNDk5MTA5ODY0MjM1LCJsciI6MC4wMDEsImltcHJvdmVkIjp0cnVlfSx7ImVwb2NoIjo3NiwidHJhaW5fbG9zcyI6MC4wMDI5NDM2NzY3NDExNzI4NywidmFsX2xvc3MiOjAuMDAyNzEzMTk1MDQ4MjcyNjA5NywibHIiOjAuMDAxLCJpbXByb3ZlZCI6ZmFsc2V9LHsiZXBvY2giOjc3LCJ0cmFpbl9sb3NzIjowLjAwMjk1NjkwMjI4NDg5OTUxOTcsInZhbF9sb3NzIjowLjAwMjcwODg2NTQwNzIzMzQzNywibHIiOjAuMDAxLCJpbXByb3ZlZCI6dHJ1ZX0seyJlcG9jaCI6NzgsInRyYWluX2xvc3MiOjAuMDAyOTYxNDQ0NzA3Mjc2OTIwMywidmFsX2xvc3MiOjAuMDAyNzI5Mzc3OTQyMTU5NzcyLCJsciI6MC4wMDEsImltcHJvdmVkIjpmYWxzZX0seyJlcG9jaCI6NzksInRyYWluX2xvc3MiOjAuMDAyOTU1NzY3MDU0NDIxMjA2NSwidmFsX2xvc3MiOjAuMDAyNjkyNTYwMDQ0NDI3NzEzLCJsciI6MC4wMDEsImltcHJvdmVkIjp0cnVlfSx7ImVwb2NoIjo4MCwidHJhaW5fbG9zcyI6MC4wMDI5MzI3MTExMDM0MTM2NjgsInZhbF9sb3NzIjowLjAwMjY4Nzg4MTYyMzA4NDM0NjMsImxyIjowLjAwMSwiaW1wcm92ZWQiOnRydWV9LHsiZXBvY2giOjgxLCJ0cmFpbl9sb3NzIjowLjAwMjkyNjUxNTIyMTI4NTMyMywidmFsX2xvc3MiOjAuMDAyNjg0ODcwNTAxOTgwMTg1NSwibHIiOjAuMDAxLCJpbXByb3ZlZCI6dHJ1ZX0seyJlcG9jaCI6ODIsInRyYWluX2xvc3MiOjAuMDAyOTI2NTA2MTAyMDg1MTEzNSwidmFsX2xvc3MiOjAuMDAyNjc3NDA1MDU5MDI3MTc1LCJsciI6MC4wMDEsImltcHJvdmVkIjp0cnVlfSx7ImVwb2NoIjo4MywidHJhaW5fbG9zcyI6MC4wMDI5MTQ5ODA2MzU5NzgyODE1LCJ2YWxfbG9zcyI6MC4wMDI2NzEwOTUxNTQ1NTg2MTksImxyIjowLjAwMSwiaW1wcm92ZWQiOnRydWV9LHsiZXBvY2giOjg0LCJ0cmFpbl9sb3NzIjowLjAwMjkyNDQ0NTI5MjE4ODA2MTQsInZhbF9sb3NzIjowLjAwMjY3MDU0MTkxMDE0NDE5LCJsciI6MC4wMDEsImltcHJvdmVkIjp0cnVlfSx7ImVwb2NoIjo4NSwidHJhaW5fbG9zcyI6MC4wMDI5MTg0NzUxMDA1NjM2MzIzLCJ2YWxfbG9zcyI6MC4wMDI2ODg1NjY4NDM2Njg2MTk2LCJsciI6MC4wMDEsImltcHJvdmVkIjpmYWxzZX0seyJlcG9jaCI6ODYsInRyYWluX2xvc3MiOjAuMDAyOTExOTgwMTczMzQzNTg2LCJ2YWxfbG9zcyI6MC4wMDI2NjQwNDcwOTkzMzk0NjUsImxyIjowLjAwMSwiaW1wcm92ZWQiOnRydWV9LHsiZXBvY2giOjg3LCJ0cmFpbl9sb3NzIjowLjAwMjg5ODgzNzYyMDgwNjM2MywidmFsX2xvc3MiOjAuMDAyNjU2NjQ2NTM4NTI1ODE5OCwibHIiOjAuMDAxLCJpbXByb3ZlZCI6dHJ1ZX0seyJlcG9jaCI6ODgsInRyYWluX2xvc3MiOjAuMDAyOTA1MzQ2Njg2MDIwNDkzNSwidmFsX2xvc3MiOjAuMDAyNjYxNDgwNzIzNTY5NzkwNCwibHIiOjAuMDAxLCJpbXByb3ZlZCI6ZmFsc2V9LHsiZXBvY2giOjg5LCJ0cmFpbl9sb3NzIjowLjAwMjkyMDQ4NjYxNTAzOTQwOCwidmFsX2xvc3MiOjAuMDAyNjk2MTA4MTUwNjA2MzU0MiwibHIiOjAuMDAxLCJpbXByb3ZlZCI6ZmFsc2V9LHsiZXBvY2giOjkwLCJ0cmFpbl9sb3NzIjowLjAwMjg5NjE0MDY2NTg1MDcwNTUsInZhbF9sb3NzIjowLjAwMjY0MzMwOTA2NzkzNDc1MTUsImxyIjowLjAwMSwiaW1wcm92ZWQiOnRydWV9LHsiZXBvY2giOjkxLCJ0cmFpbl9sb3NzIjowLjAwMjg4ODE4MDk0OTMxMTI4OTUsInZhbF9sb3NzIjowLjAwMjYzOTcyNjE1MzU3NDg4NCwibHIiOjAuMDAxLCJpbXByb3ZlZCI6dHJ1ZX0seyJlcG9jaCI6OTIsInRyYWluX2xvc3MiOjAuMDAyODgzNDUyODgzMzAwNjgyLCJ2YWxfbG9zcyI6MC4wMDI2Mzg2ODY3MTk5NzEzOTg0LCJsciI6MC4wMDEsImltcHJvdmVkIjp0cnVlfSx7ImVwb2NoIjo5MywidHJhaW5fbG9zcyI6MC4wMDI4NTc4NzYyMzAxMzQ3MzIsInZhbF9sb3NzIjowLjAwMjY0MTA3NTgzNDAxMTAzODMsImxyIjowLjAwMSwiaW1wcm92ZWQiOmZhbHNlfSx7ImVwb2NoIjo5NCwidHJhaW5fbG9zcyI6MC4wMDI4NzgyMDcwMTQ4NzM2MjQsInZhbF9sb3NzIjowLjAwMjYzNjA0MDc5MzczMTgwODcsImxyIjowLjAwMSwiaW1wcm92ZWQiOnRydWV9LHsiZXBvY2giOjk1LCJ0cmFpbl9sb3NzIjowLjAwMjg4NDE5MjI2Mjg3OTY3NiwidmFsX2xvc3MiOjAuMDAyNjIyNzYzNTA5ODYyMTI1LCJsciI6MC4wMDEsImltcHJvdmVkIjp0cnVlfSx7ImVwb2NoIjo5NiwidHJhaW5fbG9zcyI6MC4wMDI4NTk1ODk2MTc5MDYzNDUsInZhbF9sb3NzIjowLjAwMjYyOTYwMTY2ODI1NjAyNDQsImxyIjowLjAwMSwiaW1wcm92ZWQiOmZhbHNlfSx7ImVwb2NoIjo5NywidHJhaW5fbG9zcyI6MC4wMDI4ODk1NzA3MTU0MjMyNTk0LCJ2YWxfbG9zcyI6MC4wMDI2NDAxMDY0NDM2MjYxODU0LCJsciI6MC4wMDEsImltcHJvdmVkIjpmYWxzZX0seyJlcG9jaCI6OTgsInRyYWluX2xvc3MiOjAuMDAyODY1MDY2NDAyNTkxNzY1LCJ2YWxfbG9zcyI6MC4wMDI2MDg5OTg1MjM0MDQyMDEsImxyIjowLjAwMSwiaW1wcm92ZWQiOnRydWV9LHsiZXBvY2giOjk5LCJ0cmFpbl9sb3NzIjowLjAwMjg3OTA2MDc5MTkwODg2NjcsInZhbF9sb3NzIjowLjAwMjYxODk4NjY4NjM4MTIwMSwibHIiOjAuMDAxLCJpbXByb3ZlZCI6ZmFsc2V9LHsiZXBvY2giOjEwMCwidHJhaW5fbG9zcyI6MC4wMDI4MzkyMzA2ODY1Mjk2NDMsInZhbF9sb3NzIjowLjAwMjYwMzMyNzczOTA1MjQ3NDUsImxyIjowLjAwMSwiaW1wcm92ZWQiOnRydWV9LHsiZXBvY2giOjEwMSwidHJhaW5fbG9zcyI6MC4wMDI4NjY5NjIzNTU0NTgwNzQyLCJ2YWxfbG9zcyI6MC4wMDI2MDA5NDU5MjAzNzMwMDI1LCJsciI6MC4wMDEsImltcHJvdmVkIjp0cnVlfSx7ImVwb2NoIjoxMDIsInRyYWluX2xvc3MiOjAuMDAyODUyODI0Mjk2Njk4ODAyLCJ2YWxfbG9zcyI6MC4wMDI2MjE5NjQzOTYyODc5OTc3LCJsciI6MC4wMDEsImltcHJvdmVkIjpmYWxzZX0seyJlcG9jaCI6MTAzLCJ0cmFpbl9sb3NzIjowLjAwMjg1Mzc4MDE2OTk3MTI4NzMsInZhbF9sb3NzIjowLjAwMjYxODg0ODc3MzAyOTk0MzUsImxyIjowLjAwMSwiaW1wcm92ZWQiOmZhbHNlfSx7ImVwb2NoIjoxMDQsInRyYWluX2xvc3MiOjAuMDAyODUzNjE4MDAzNDI3OTgyMywidmFsX2xvc3MiOjAuMDAyNTg5NTcwODI0MDU2ODY0LCJsciI6MC4wMDEsImltcHJvdmVkIjp0cnVlfSx7ImVwb2NoIjoxMDUsInRyYWluX2xvc3MiOjAuMDAyODY4NjU1OTY1NTYwMDEyNSwidmFsX2xvc3MiOjAuMDAyNTk0MDQyNDUyOTgzNTU4LCJsciI6MC4wMDEsImltcHJvdmVkIjpmYWxzZX0seyJlcG9jaCI6MTA2LCJ0cmFpbl9sb3NzIjowLjAwMjgzMzQ1NDY3NTY2MjAyMDcsInZhbF9sb3NzIjowLjAwMjU4NjMzOTMyODc0ODQ4NDYsImxyIjowLjAwMSwiaW1wcm92ZWQiOnRydWV9LHsiZXBvY2giOjEwNywidHJhaW5fbG9zcyI6MC4wMDI4MzI3NDE5NDIyNTY2ODksInZhbF9sb3NzIjowLjAwMjU4MjkxODM0ODEwMTI3ODMsImxyIjowLjAwMSwiaW1wcm92ZWQiOnRydWV9LHsiZXBvY2giOjEwOCwidHJhaW5fbG9zcyI6MC4wMDI4NDUwMzM3OTYyOTcxNzk1LCJ2YWxfbG9zcyI6MC4wMDI1Nzg2NDA3NDQ3MTA5NjIsImxyIjowLjAwMSwiaW1wcm92ZWQiOnRydWV9LHsiZXBvY2giOjEwOSwidHJhaW5fbG9zcyI6MC4wMDI4NDYwNzA2ODE2OTg2MjAzLCJ2YWxfbG9zcyI6MC4wMDI1ODE0NzA5NTY0MDUwMDQsImxyIjowLjAwMSwiaW1wcm92ZWQiOmZhbHNlfSx7ImVwb2NoIjoxMTAsInRyYWluX2xvc3MiOjAuMDAyODI3Mzg4MDE0NTQwOTA0LCJ2YWxfbG9zcyI6MC4wMDI1ODUwMjYzMTkxMzg3MDU3LCJsciI6MC4wMDEsImltcHJvdmVkIjpmYWxzZX0seyJlcG9jaCI6MTExLCJ0cmFpbl9sb3NzIjowLjAwMjg0MTA4MTE5ODYxNTMzMjYsInZhbF9sb3NzIjowLjAwMjU3MjUxMDY2MzEwOTUyMSwibHIiOjAuMDAxLCJpbXByb3ZlZCI6dHJ1ZX0seyJlcG9jaCI6MTEyLCJ0cmFpbl9sb3NzIjowLjAwMjgzMTQ1OTMyOTk4MDk0MywidmFsX2xvc3MiOjAuMDAyNTcwODYxODM0MTAxMzc5LCJsciI6MC4wMDEsImltcHJvdmVkIjp0cnVlfSx7ImVwb2NoIjoxMTMsInRyYWluX2xvc3MiOjAuMDAyODM1MTUxNDgwNzE3NzkxMywidmFsX2xvc3MiOjAuMDAyNTY3ODU3MTE1ODM5OTE4NiwibHIiOjAuMDAxLCJpbXByb3ZlZCI6dHJ1ZX0seyJlcG9jaCI6MTE0LCJ0cmFpbl9sb3NzIjowLjAwMjgyODU1MTQ1NjMzMjIwNjcsInZhbF9sb3NzIjowLjAwMjU3NDM3NjUyOTA4MjY1NiwibHIiOjAuMDAxLCJpbXByb3ZlZCI6ZmFsc2V9LHsiZXBvY2giOjExNSwidHJhaW5fbG9zcyI6MC4wMDI4NDA0MTIwODIxNTA1Nzg1LCJ2YWxfbG9zcyI6MC4wMDI1Njg0Nzg3NzM2NTg0NzQ0LCJsciI6MC4wMDEsImltcHJvdmVkIjpmYWxzZX0seyJlcG9jaCI6MTE2LCJ0cmFpbl9sb3NzIjowLjAwMjgyMTAxNDg4MzYxNzU2LCJ2YWxfbG9zcyI6MC4wMDI1NzM1NDYwNjA5ODE4NDk3LCJsciI6MC4wMDEsImltcHJvdmVkIjpmYWxzZX0seyJlcG9jaCI6MTE3LCJ0cmFpbl9sb3NzIjowLjAwMjg0NDg2Mjg0Njg2NDU5NCwidmFsX2xvc3MiOjAuMDAyNTYyNjI5OTkwMjc5Njc0NSwibHIiOjAuMDAxLCJpbXByb3ZlZCI6dHJ1ZX0seyJlcG9jaCI6MTE4LCJ0cmFpbl9sb3NzIjowLjAwMjgxMzExNjI5ODA1NzEzOSwidmFsX2xvc3MiOjAuMDAyNTU4MTY3MDUzNjk3MDEsImxyIjowLjAwMSwiaW1wcm92ZWQiOnRydWV9LHsiZXBvY2giOjExOSwidHJhaW5fbG9zcyI6MC4wMDI4MjE2NzE3NzY0NzM1MjIsInZhbF9sb3NzIjowLjAwMjU1ODYxMDk4NDEyNDI0MzMsImxyIjowLjAwMSwiaW1wcm92ZWQiOmZhbHNlfSx7ImVwb2NoIjoxMjAsInRyYWluX2xvc3MiOjAuMDAyODE1NjU0MzA3MjkzMzk1LCJ2YWxfbG9zcyI6MC4wMDI1OTY3ODQ2MTU4ODkxOTE2LCJsciI6MC4wMDEsImltcHJvdmVkIjpmYWxzZX0seyJlcG9jaCI6MTIxLCJ0cmFpbl9sb3NzIjowLjAwMjgxNzQ4NzQ5OTM2NjIwNCwidmFsX2xvc3MiOjAuMDAyNTY3MTYwNDA4OTQzODkxNSwibHIiOjAuMDAxLCJpbXByb3ZlZCI6ZmFsc2V9LHsiZXBvY2giOjEyMiwidHJhaW5fbG9zcyI6MC4wMDI4MDY1MTAwNjQ4NTQzOSwidmFsX2xvc3MiOjAuMDAyNTUyMDgwNzA1NDUxNDY4NSwibHIiOjAuMDAxLCJpbXByb3ZlZCI6dHJ1ZX0seyJlcG9jaCI6MTIzLCJ0cmFpbl9sb3NzIjowLjAwMjc4NjcwNDMwMDI4MTkwMjMsInZhbF9sb3NzIjowLjAwMjU1MzgxNTkxNDYyODQwNjUsImxyIjowLjAwMSwiaW1wcm92ZWQiOmZhbHNlfSx7ImVwb2NoIjoxMjQsInRyYWluX2xvc3MiOjAuMDAyODE3OTIxMTk4MTgwMTUyLCJ2YWxfbG9zcyI6MC4wMDI1NDg0MTAwNTI3NDQwNTEsImxyIjowLjAwMSwiaW1wcm92ZWQiOnRydWV9LHsiZXBvY2giOjEyNSwidHJhaW5fbG9zcyI6MC4wMDI4MTYyMTczNjkzOTk5NjUsInZhbF9sb3NzIjowLjAwMjU2MjU4ODc3OTI1NTc0OCwibHIiOjAuMDAxLCJpbXByb3ZlZCI6ZmFsc2V9LHsiZXBvY2giOjEyNiwidHJhaW5fbG9zcyI6MC4wMDI4MTEwNTYzOTM2MTI1OSwidmFsX2xvc3MiOjAuMDAyNTUzNTc3MzQwODI4ODc1NiwibHIiOjAuMDAxLCJpbXByb3ZlZCI6ZmFsc2V9LHsiZXBvY2giOjEyNywidHJhaW5fbG9zcyI6MC4wMDI4MjE4MDMwOTI5NTY1NDMsInZhbF9sb3NzIjowLjAwMjU1OTY2MzcyNzg3OTUyNDIsImxyIjowLjAwMSwiaW1wcm92ZWQiOmZhbHNlfSx7ImVwb2NoIjoxMjgsInRyYWluX2xvc3MiOjAuMDAyODA5MzY5MDk1ODA4MTAyLCJ2YWxfbG9zcyI6MC4wMDI1NDc0NTM3Nzg0ODU0NTcsImxyIjowLjAwMSwiaW1wcm92ZWQiOnRydWV9LHsiZXBvY2giOjEyOSwidHJhaW5fbG9zcyI6MC4wMDI4MTUzNTQ5MjU4OTA3NjM3LCJ2YWxfbG9zcyI6MC4wMDI1NDE0MzQ4MzQ3MTEyNTM2LCJsciI6MC4wMDEsImltcHJvdmVkIjp0cnVlfSx7ImVwb2NoIjoxMzAsInRyYWluX2xvc3MiOjAuMDAyODEzNzMxNTUzMDMyOTk0MywidmFsX2xvc3MiOjAuMDAyNTQyNDg0Mzk2NDQ3NzM4LCJsciI6MC4wMDEsImltcHJvdmVkIjpmYWxzZX0seyJlcG9jaCI6MTMxLCJ0cmFpbl9sb3NzIjowLjAwMjgwOTY3ODQ2MzA1ODMzOTQsInZhbF9sb3NzIjowLjAwMjU1NTA2MTc5MTQwMjU5ODQsImxyIjowLjAwMSwiaW1wcm92ZWQiOmZhbHNlfSx7ImVwb2NoIjoxMzIsInRyYWluX2xvc3MiOjAuMDAyODI0NTUzMzY2MTI5NTk3LCJ2YWxfbG9zcyI6MC4wMDI1MzkzNjg4MTE5OTQ3OTEsImxyIjowLjAwMSwiaW1wcm92ZWQiOnRydWV9LHsiZXBvY2giOjEzMywidHJhaW5fbG9zcyI6MC4wMDI4MDMxMjU0MzE2NTc2NjU0LCJ2YWxfbG9zcyI6MC4wMDI1MzY2ODA1MTA1NzgwNTYzLCJsciI6MC4wMDEsImltcHJvdmVkIjp0cnVlfSx7ImVwb2NoIjoxMzQsInRyYWluX2xvc3MiOjAuMDAyODIxMzY2NjUxOTE1MDE0LCJ2YWxfbG9zcyI6MC4wMDI1NTA1NDg2NDEwMTExMTksImxyIjowLjAwMSwiaW1wcm92ZWQiOmZhbHNlfSx7ImVwb2NoIjoxMzUsInRyYWluX2xvc3MiOjAuMDAyODA3MzU5ODMyMDI4NTQ3OCwidmFsX2xvc3MiOjAuMDAyNTM0NzI2MjQ2NTcwNTQ3NiwibHIiOjAuMDAxLCJpbXByb3ZlZCI6dHJ1ZX0seyJlcG9jaCI6MTM2LCJ0cmFpbl9sb3NzIjowLjAwMjc4NDYwMjY2NzQxMTk5NiwidmFsX2xvc3MiOjAuMDAyNTQzNTk1ODUyMzMwMzI3LCJsciI6MC4wMDEsImltcHJvdmVkIjpmYWxzZX0seyJlcG9jaCI6MTM3LCJ0cmFpbl9sb3NzIjowLjAwMjc5MjQxNzQ1OTgxMDc3MzQsInZhbF9sb3NzIjowLjAwMjUzMzA3NTI0NDQ3NjM5OCwibHIiOjAuMDAxLCJpbXByb3ZlZCI6dHJ1ZX0seyJlcG9jaCI6MTM4LCJ0cmFpbl9sb3NzIjowLjAwMjgwNjkyOTAxNzcyNzU3NCwidmFsX2xvc3MiOjAuMDAyNTM1OTA2Njk3OTMzODcyNywibHIiOjAuMDAxLCJpbXByb3ZlZCI6ZmFsc2V9LHsiZXBvY2giOjEzOSwidHJhaW5fbG9zcyI6MC4wMDI3ODQ0MTkzMjYyMTUxNTQ1LCJ2YWxfbG9zcyI6MC4wMDI1MzAwMzM1MDYxNDI1OTYzLCJsciI6MC4wMDEsImltcHJvdmVkIjp0cnVlfSx7ImVwb2NoIjoxNDAsInRyYWluX2xvc3MiOjAuMDAyNzc5NTYzMjI5MjIwNjA4NywidmFsX2xvc3MiOjAuMDAyNTM0MDAxMjExOTQ2MjA5NCwibHIiOjAuMDAxLCJpbXByb3ZlZCI6ZmFsc2V9LHsiZXBvY2giOjE0MSwidHJhaW5fbG9zcyI6MC4wMDI4MTY5MjQ5MDI5MjA5MjIsInZhbF9sb3NzIjowLjAwMjUzOTMzNjUyNjE0NTUzOCwibHIiOjAuMDAxLCJpbXByb3ZlZCI6ZmFsc2V9LHsiZXBvY2giOjE0MiwidHJhaW5fbG9zcyI6MC4wMDI4MDM0NTQ0NjAxNjIyNTU1LCJ2YWxfbG9zcyI6MC4wMDI1Mjc2Mjk2MDczNTcwODQ4LCJsciI6MC4wMDEsImltcHJvdmVkIjp0cnVlfSx7ImVwb2NoIjoxNDMsInRyYWluX2xvc3MiOjAuMDAyODAxMzU0Mzc5NDk2NjQwNSwidmFsX2xvc3MiOjAuMDAyNTI3NjQ5ODI0ODE3OTc1NSwibHIiOjAuMDAxLCJpbXByb3ZlZCI6ZmFsc2V9LHsiZXBvY2giOjE0NCwidHJhaW5fbG9zcyI6MC4wMDI3OTgwODE1NDM4MTM5NzcsInZhbF9sb3NzIjowLjAwMjUyNDY5MzIyNDg4OTUzNywibHIiOjAuMDAxLCJpbXByb3ZlZCI6dHJ1ZX0seyJlcG9jaCI6MTQ1LCJ0cmFpbl9sb3NzIjowLjAwMjc4NDg0NDA0ODExNDI4NjcsInZhbF9sb3NzIjowLjAwMjUyNjE4NDUwNTE2MjE0LCJsciI6MC4wMDEsImltcHJvdmVkIjpmYWxzZX0seyJlcG9jaCI6MTQ2LCJ0cmFpbl9sb3NzIjowLjAwMjc3OTUwNDgyNzUzNDE1OSwidmFsX2xvc3MiOjAuMDAyNTIzNDA5NjI5NTUxMDczLCJsciI6MC4wMDEsImltcHJvdmVkIjp0cnVlfSx7ImVwb2NoIjoxNDcsInRyYWluX2xvc3MiOjAuMDAyODA3MDYyNjEwNzc2ODg4LCJ2YWxfbG9zcyI6MC4wMDI1MjUxNjQwNDcyNTYxMTIsImxyIjowLjAwMSwiaW1wcm92ZWQiOmZhbHNlfSx7ImVwb2NoIjoxNDgsInRyYWluX2xvc3MiOjAuMDAyNzc3NjgyMzk3NDExMTAxNSwidmFsX2xvc3MiOjAuMDAyNTIzMTEzMzEzNzUxOTE2LCJsciI6MC4wMDEsImltcHJvdmVkIjp0cnVlfSx7ImVwb2NoIjoxNDksInRyYWluX2xvc3MiOjAuMDAyNzk1NjkwNTAyNDU0MDA5NCwidmFsX2xvc3MiOjAuMDAyNTI0ODM4ODk5MjYyMjQ5NSwibHIiOjAuMDAxLCJpbXByb3ZlZCI6ZmFsc2V9LHsiZXBvY2giOjE1MCwidHJhaW5fbG9zcyI6MC4wMDI3OTI5NjgyOTgzMDg1NTEzLCJ2YWxfbG9zcyI6MC4wMDI1MjI0MzcxNzM1NjI3NDUsImxyIjowLjAwMSwiaW1wcm92ZWQiOnRydWV9LHsiZXBvY2giOjE1MSwidHJhaW5fbG9zcyI6MC4wMDI3NjMxMTQ1MjAzNDg2MDg1LCJ2YWxfbG9zcyI6MC4wMDI1MjI0NjQ0MTQ3NDgwNTI2LCJsciI6MC4wMDEsImltcHJvdmVkIjpmYWxzZX0seyJlcG9jaCI6MTUyLCJ0cmFpbl9sb3NzIjowLjAwMjc4MDkwMjAzMTI5MTY5LCJ2YWxfbG9zcyI6MC4wMDI1MjEwODgyNjkyMjg3MzY0LCJsciI6MC4wMDEsImltcHJvdmVkIjp0cnVlfSx7ImVwb2NoIjoxNTMsInRyYWluX2xvc3MiOjAuMDAyNzcwOTM2NjQ2OTEyNjYxLCJ2YWxfbG9zcyI6MC4wMDI1MjEwMjYyOTc0NzI0MTc0LCJsciI6MC4wMDEsImltcHJvdmVkIjp0cnVlfSx7ImVwb2NoIjoxNTQsInRyYWluX2xvc3MiOjAuMDAyNzczNTA0ODk4MjYyNTIwOCwidmFsX2xvc3MiOjAuMDAyNTY1MTI2MDkwMDAwMDczLCJsciI6MC4wMDEsImltcHJvdmVkIjpmYWxzZX0seyJlcG9jaCI6MTU1LCJ0cmFpbl9sb3NzIjowLjAwMjgwNjAzNjIyODYyNDQ4MywidmFsX2xvc3MiOjAuMDAyNTY5OTczMjc0NzU0OTgxLCJsciI6MC4wMDEsImltcHJvdmVkIjpmYWxzZX0seyJlcG9jaCI6MTU2LCJ0cmFpbl9sb3NzIjowLjAwMjgyMjQ3NzI1NDA4NTI0MjcsInZhbF9sb3NzIjowLjAwMjUxNjg2MTY5NDU1NDQ4NzcsImxyIjowLjAwMSwiaW1wcm92ZWQiOnRydWV9LHsiZXBvY2giOjE1NywidHJhaW5fbG9zcyI6MC4wMDI3OTQ2Njk5NDEwNjc2OTU2LCJ2YWxfbG9zcyI6MC4wMDI1MTU4NzM2Nzc3MTgxNDI1LCJsciI6MC4wMDEsImltcHJvdmVkIjp0cnVlfSx7ImVwb2NoIjoxNTgsInRyYWluX2xvc3MiOjAuMDAyNzY5MjEwMTQzMDE0Nzg4NiwidmFsX2xvc3MiOjAuMDAyNTE5ODc1NjA5NjI2MzczLCJsciI6MC4wMDEsImltcHJvdmVkIjpmYWxzZX0seyJlcG9jaCI6MTU5LCJ0cmFpbl9sb3NzIjowLjAwMjc2ODc2MTk0NDAyNTc1NSwidmFsX2xvc3MiOjAuMDAyNTEzNTQzMDgxNzgwMjc1LCJsciI6MC4wMDEsImltcHJvdmVkIjp0cnVlfSx7ImVwb2NoIjoxNjAsInRyYWluX2xvc3MiOjAuMDAyNzczODkzMzExNTE2Mjc4NCwidmFsX2xvc3MiOjAuMDAyNTE0MTk5MTk4NTM0MDkxNSwibHIiOjAuMDAxLCJpbXByb3ZlZCI6ZmFsc2V9LHsiZXBvY2giOjE2MSwidHJhaW5fbG9zcyI6MC4wMDI3Nzk4NjA5NTQ5Mzg2NjMsInZhbF9sb3NzIjowLjAwMjUxMTkxMjQ1MjM2NzQ0NSwibHIiOjAuMDAxLCJpbXByb3ZlZCI6dHJ1ZX0seyJlcG9jaCI6MTYyLCJ0cmFpbl9sb3NzIjowLjAwMjc2Njc1MjgzNTQ2NjYzLCJ2YWxfbG9zcyI6MC4wMDI1MTc0NzI3MTk3NzM2NSwibHIiOjAuMDAxLCJpbXByb3ZlZCI6ZmFsc2V9LHsiZXBvY2giOjE2MywidHJhaW5fbG9zcyI6MC4wMDI3NjEzNzU4OTYzMjIyMzA0LCJ2YWxfbG9zcyI6MC4wMDI1MTM5MjUyMzQ0NzY3MjUsImxyIjowLjAwMSwiaW1wcm92ZWQiOmZhbHNlfSx7ImVwb2NoIjoxNjQsInRyYWluX2xvc3MiOjAuMDAyNzU0ODM2OTM4MjQwNDYyLCJ2YWxfbG9zcyI6MC4wMDI1MTIwNjEwNzU5MjgzMTA0LCJsciI6MC4wMDEsImltcHJvdmVkIjpmYWxzZX0seyJlcG9jaCI6MTY1LCJ0cmFpbl9sb3NzIjowLjAwMjc3MTQ1MzkzMTkyNzY4MSwidmFsX2xvc3MiOjAuMDAyNTA5ODgwNzMzMzY1ODEzNywibHIiOjAuMDAxLCJpbXByb3ZlZCI6dHJ1ZX0seyJlcG9jaCI6MTY2LCJ0cmFpbl9sb3NzIjowLjAwMjc0NzIyMzQyNzkzMzEyMzQsInZhbF9sb3NzIjowLjAwMjUwOTYwMDYzODEwMTQ5OCwibHIiOjAuMDAxLCJpbXByb3ZlZCI6dHJ1ZX0seyJlcG9jaCI6MTY3LCJ0cmFpbl9sb3NzIjowLjAwMjc0OTIwODM3Mzg0NTQ1MTUsInZhbF9sb3NzIjowLjAwMjUyMzcxNDMyNzI1MzQwMTMsImxyIjowLjAwMSwiaW1wcm92ZWQiOmZhbHNlfSx7ImVwb2NoIjoxNjgsInRyYWluX2xvc3MiOjAuMDAyNzc2NTMzODU2NzgwOTkzLCJ2YWxfbG9zcyI6MC4wMDI1MzE4MTM2NTE2MzM3NTk1LCJsciI6MC4wMDEsImltcHJvdmVkIjpmYWxzZX0seyJlcG9jaCI6MTY5LCJ0cmFpbl9sb3NzIjowLjAwMjc3NjY0NDM0Nzg1NjQ0MiwidmFsX2xvc3MiOjAuMDAyNTA3NDY3ODcwNjAwNTIxNiwibHIiOjAuMDAxLCJpbXByb3ZlZCI6dHJ1ZX0seyJlcG9jaCI6MTcwLCJ0cmFpbl9sb3NzIjowLjAwMjc4MTY2ODA4MjkxNDQxODUsInZhbF9sb3NzIjowLjAwMjUwNTE2MDIwODQ4MTA1MzQsImxyIjowLjAwMSwiaW1wcm92ZWQiOnRydWV9LHsiZXBvY2giOjE3MSwidHJhaW5fbG9zcyI6MC4wMDI3NTA1NzI4NTE5NjI1MTMzLCJ2YWxfbG9zcyI6MC4wMDI1MTA4MTczNzIyNDAxMjYsImxyIjowLjAwMSwiaW1wcm92ZWQiOmZhbHNlfSx7ImVwb2NoIjoxNzIsInRyYWluX2xvc3MiOjAuMDAyNzYxNzc5Mjc1NDEyMzYwNywidmFsX2xvc3MiOjAuMDAyNTA0MTg1MjY4OTY1ODYwNCwibHIiOjAuMDAxLCJpbXByb3ZlZCI6dHJ1ZX0seyJlcG9jaCI6MTczLCJ0cmFpbl9sb3NzIjowLjAwMjc1NjM4MTI3ODAyOTc0NjQsInZhbF9sb3NzIjowLjAwMjUwMzE5Mzc5ODQ3NDk2NzUsImxyIjowLjAwMSwiaW1wcm92ZWQiOnRydWV9LHsiZXBvY2giOjE3NCwidHJhaW5fbG9zcyI6MC4wMDI3ODU5Mjg5MDk1NjMzNTYsInZhbF9sb3NzIjowLjAwMjUwNTQwMzM2MTI4MzI0MjcsImxyIjowLjAwMSwiaW1wcm92ZWQiOmZhbHNlfSx7ImVwb2NoIjoxNzUsInRyYWluX2xvc3MiOjAuMDAyNzQ1ODEyMjQxNDAxOTM3MywidmFsX2xvc3MiOjAuMDAyNTA4ODUyNjMwODUzNjUzLCJsciI6MC4wMDEsImltcHJvdmVkIjpmYWxzZX0seyJlcG9jaCI6MTc2LCJ0cmFpbl9sb3NzIjowLjAwMjc0NjI2OTQ0MzE3NTg1OSwidmFsX2xvc3MiOjAuMDAyNTA4Mzg4NTYwNTc1NzQzNywibHIiOjAuMDAxLCJpbXByb3ZlZCI6ZmFsc2V9LHsiZXBvY2giOjE3NywidHJhaW5fbG9zcyI6MC4wMDI3NTU4MTAwMjgwNDU1NDE2LCJ2YWxfbG9zcyI6MC4wMDI1MDkzODU1NDEzOTE4Njk1LCJsciI6MC4wMDEsImltcHJvdmVkIjpmYWxzZX0seyJlcG9jaCI6MTc4LCJ0cmFpbl9sb3NzIjowLjAwMjc2NTQ4MjA5NzU1MzcxLCJ2YWxfbG9zcyI6MC4wMDI1MDg5ODY2NjM2OTQxODMsImxyIjowLjAwMSwiaW1wcm92ZWQiOmZhbHNlfSx7ImVwb2NoIjoxNzksInRyYWluX2xvc3MiOjAuMDAyNzU0MzAyMzQ2MTQ3NTk3LCJ2YWxfbG9zcyI6MC4wMDI1MDEyMjQwOTAwMzQ3NjMsImxyIjowLjAwMSwiaW1wcm92ZWQiOnRydWV9LHsiZXBvY2giOjE4MCwidHJhaW5fbG9zcyI6MC4wMDI3NTIzMjU3MzAzOTgyOTczLCJ2YWxfbG9zcyI6MC4wMDI1MDI5ODcxMjI0NzM2MTc1LCJsciI6MC4wMDEsImltcHJvdmVkIjpmYWxzZX0seyJlcG9jaCI6MTgxLCJ0cmFpbl9sb3NzIjowLjAwMjc2NjY5Mzc4NzAyODM5MjMsInZhbF9sb3NzIjowLjAwMjUyMjczOTM0ODkzMzEwMDcsImxyIjowLjAwMSwiaW1wcm92ZWQiOmZhbHNlfSx7ImVwb2NoIjoxODIsInRyYWluX2xvc3MiOjAuMDAyNzc5MjI5MjA3NzkyMjE2LCJ2YWxfbG9zcyI6MC4wMDI1NDA4NDIxNjQzMDc4MzI3LCJsciI6MC4wMDEsImltcHJvdmVkIjpmYWxzZX0seyJlcG9jaCI6MTgzLCJ0cmFpbl9sb3NzIjowLjAwMjc3ODc3MDI4NTY1ODUzODMsInZhbF9sb3NzIjowLjAwMjQ5OTExOTY4OTA2NzIwNSwibHIiOjAuMDAxLCJpbXByb3ZlZCI6dHJ1ZX0seyJlcG9jaCI6MTg0LCJ0cmFpbl9sb3NzIjowLjAwMjc2ODIzNzY5OTk2MTQ5NjUsInZhbF9sb3NzIjowLjAwMjQ5NzQ4NTk5NDA1MDksImxyIjowLjAwMSwiaW1wcm92ZWQiOnRydWV9LHsiZXBvY2giOjE4NSwidHJhaW5fbG9zcyI6MC4wMDI3NDY2NDcxMzMyODQ5NzMsInZhbF9sb3NzIjowLjAwMjQ5NzAyMzM1OTU2MTk1OTgsImxyIjowLjAwMSwiaW1wcm92ZWQiOnRydWV9LHsiZXBvY2giOjE4NiwidHJhaW5fbG9zcyI6MC4wMDI3NjI2MTk4MDY5NzA5ODcsInZhbF9sb3NzIjowLjAwMjUwMjg0MjAzMDE3NzUxMzYsImxyIjowLjAwMSwiaW1wcm92ZWQiOmZhbHNlfSx7ImVwb2NoIjoxODcsInRyYWluX2xvc3MiOjAuMDAyNzYyOTc1MjQ4ODE4NTk2MywidmFsX2xvc3MiOjAuMDAyNDk2MDkxNzY1MzUxNTkzNSwibHIiOjAuMDAxLCJpbXByb3ZlZCI6dHJ1ZX0seyJlcG9jaCI6MTg4LCJ0cmFpbl9sb3NzIjowLjAwMjc1NjUxMjIwNjQ2MTY5NDYsInZhbF9sb3NzIjowLjAwMjQ5NDMwNjA3MDczMDA5LCJsciI6MC4wMDEsImltcHJvdmVkIjp0cnVlfSx7ImVwb2NoIjoxODksInRyYWluX2xvc3MiOjAuMDAyNzcxMDg0OTcyOTY3NzA0MywidmFsX2xvc3MiOjAuMDAyNDk0MTgwNDk3NDAyOTQ2LCJsciI6MC4wMDEsImltcHJvdmVkIjp0cnVlfSx7ImVwb2NoIjoxOTAsInRyYWluX2xvc3MiOjAuMDAyNzYzMTA3NzY4MjU5OTQyNSwidmFsX2xvc3MiOjAuMDAyNDk4NDc3Nzc0OTgyNjUxMiwibHIiOjAuMDAxLCJpbXByb3ZlZCI6ZmFsc2V9LHsiZXBvY2giOjE5MSwidHJhaW5fbG9zcyI6MC4wMDI3NTMxMzE3OTAwODY2MjcsInZhbF9sb3NzIjowLjAwMjQ5ODkzNDc0MzkyNTkyOSwibHIiOjAuMDAxLCJpbXByb3ZlZCI6ZmFsc2V9LHsiZXBvY2giOjE5MiwidHJhaW5fbG9zcyI6MC4wMDI3NDU4NjUzMDA5MTg2MTg3LCJ2YWxfbG9zcyI6MC4wMDI0OTQyOTQxNTc1NjIxNTY3LCJsciI6MC4wMDEsImltcHJvdmVkIjpmYWxzZX0seyJlcG9jaCI6MTkzLCJ0cmFpbl9sb3NzIjowLjAwMjc1ODc5NDAzNzMxNDc1MjYsInZhbF9sb3NzIjowLjAwMjQ5ODQxMzAwOTI1ODYwOCwibHIiOjAuMDAxLCJpbXByb3ZlZCI6ZmFsc2V9LHsiZXBvY2giOjE5NCwidHJhaW5fbG9zcyI6MC4wMDI3MzY3NzMzODA2OTkyNTcsInZhbF9sb3NzIjowLjAwMjUwMTk4NDAxMDQ1MDU0MiwibHIiOjAuMDAxLCJpbXByb3ZlZCI6ZmFsc2V9LHsiZXBvY2giOjE5NSwidHJhaW5fbG9zcyI6MC4wMDI3NTk2MTc1MDc1NjEyMTMzLCJ2YWxfbG9zcyI6MC4wMDI1MDc4NjU0Mjg5MjQ1NjA1LCJsciI6MC4wMDEsImltcHJvdmVkIjpmYWxzZX0seyJlcG9jaCI6MTk2LCJ0cmFpbl9sb3NzIjowLjAwMjc2NjQ5NjM5ODM4MjcxNywidmFsX2xvc3MiOjAuMDAyNTAyMjE1NTk5MzMwNzYzLCJsciI6MC4wMDEsImltcHJvdmVkIjpmYWxzZX0seyJlcG9jaCI6MTk3LCJ0cmFpbl9sb3NzIjowLjAwMjc1MzUxNjk4MjUxNjQ4MDYsInZhbF9sb3NzIjowLjAwMjQ5MTA5MTAyODc4NzE5NTcsImxyIjowLjAwMSwiaW1wcm92ZWQiOnRydWV9LHsiZXBvY2giOjE5OCwidHJhaW5fbG9zcyI6MC4wMDI3MzcyNTkwOTEyOTE5OTA2LCJ2YWxfbG9zcyI6MC4wMDI0OTc0ODU4Mzg4MzA0NzEsImxyIjowLjAwMSwiaW1wcm92ZWQiOmZhbHNlfSx7ImVwb2NoIjoxOTksInRyYWluX2xvc3MiOjAuMDAyNzU0Njk3NzgzMTI1NzcxMiwidmFsX2xvc3MiOjAuMDAyNDkyMTIyNjYyNTY0MTE5LCJsciI6MC4wMDEsImltcHJvdmVkIjpmYWxzZX0seyJlcG9jaCI6MjAwLCJ0cmFpbl9sb3NzIjowLjAwMjc2MjQ0MDMyMDQxNDgwMTYsInZhbF9sb3NzIjowLjAwMjQ5MDI2MDAxNzQxNDg4OCwibHIiOjAuMDAxLCJpbXByb3ZlZCI6dHJ1ZX1dLCJiYWNrZW5kIjoiY3VkYSJ9L0kQPoZeNz2qhXs+PokWvY0aaD6p6d49K58PPtE68L0WgHE+G90DPcfQU7rT4W++NSbovTwdz70uK5O7YIILu+kmLL48BTC+NJ78PcBTEj7/jBc+kCyAPpJnFD2OoUs+g++kPc4UYj5VlIy8+Z5kvu0VhT1BngM+hGXiu+Rls736BhA9pnE5PidPBD6gfC++0Kw1PZaDprx8MUg+4nTlPYu7ITyvBpS9mhADvZ1URL7g3lO9aljJvBEao7xTK8S7HBuCPqy9XL2kDII9pikwvi7tPz7UUyc+NSyivR2Fkr1p1Pm6bR5iPVjIaT4My1w+3btQPTlIVL472t+9pJpQPip6OL5I70I8Yf2CPQOnnb2eOqE+ubuJPVJcmr7jvok92KQ9vsXdYD6dQX4+dsNmPclVCz00Gye+Y1VeuXEt2L2WMay9Ng1WPpNSAr6PSSa8kjKGPuFQdj4UsV++JhnIPXTZYjumu5m+FZIYPv2rKj5FRaA9ega8PRnxEL4p/1i9mWJsPu4cQjxLVTE+fjcwPhhn3j3KY3++JMdlPV6hfT5Woy28THi1vQBqbz7zULU8te2PPlewUL2PoAo++rmrPa7SKj5EDUQ+Hc2tPbI2I71sANW9AsWlvl8SOr35hqm9wW71vbk8BD5Xalc+G7WVPUavRz6h+Fg+0BxrPmQErr2fwzw+tkpiPlZhOD59oEY+h/EIvpEfcb3vBVw+cuJ0PmYfxb3C/Iq+kXXBPb/b+zzUunm9AeyFPa4UL76nxnm9dKu2va0fZT3YPAe95aO7PYJF4TwBMRW+/eQAPjh4ir0Hpac9KLOhPUzc9LxDS749JcBHvtQltj3ofLA9e+LePfdchj0lcmi9l6NSvZ4jHL2DVSm+NFekPUMDBz4hgVe9zZ/GveNb1b08zyu9xsHMvVE3Eb6DFFK9OIMJPeWdmj3E0207fcbaPVQwKL6Pha69YEoRPUvpLz7HODg9E3jxvIagprx5aWi8kTz1PTMIxTwEDFm9q++lPVPED77u+269C8/UPRC9PL2c1pC7srhTvJ49hD48ZQE+0/gEPdZExrpolCS9A98Pu1cMkrw+k8u8n9t0PaEEr70naV+9yH5oPBZMIrxEnJ89Wy/PvGMqd729tt68OxdFPZd+Lz7zh3O9K492PLErljyEc7k9aq5ivUDuy7tU4789CSRjPA98Cz0QgOe9ghh/vR5t2D3Jpri9e6GwPXeFsz1qinS+lF0MvZJ91r3wuDo+yT0PvlRWZzy3UlM7IgQAPVljbzlRaYM9TKg+Pfe+tb1ACao9wVGOPb/4T71mBkm8ecbsPeVWzLy+NJC9i8UNPjdGTT6f/sA8cR9gu9Kb2T3KBM+9rr5xPVGVyD2riiM94tK4PbMJlr0HRXk+6RInvk14Hj2yaJO7sYocvn7TGT7XxEy9Ks/FPF9Zlj5JiUo9fHZ/PUmV1bzaCFm8yZqYvNsfpbweV608jmMpPt6GQL0Bpwk+fFdgvprrnT0BJIW+/KJyPJ5L5j7abyI7K3Sdvd6HsT0465I8a7PWPfTCuL22hH48rgl+vUa4Xb5rg3u99lQhPUH4xrwd0Mw9swuZPUgryj3qywi9Nmmgvcw+Cz5dcpQ5Aii3PRXiub0nT/K8wfhjPkXeaD2b8Xa98ZkBvZiPpjyjc/o9APE0PojlAbxbVBE8JGO4vSHNLD0jkYq9w3WmPfGU/bw3Yc89GvOzPVIO7by/LzQ96TTOvsHS370uc1m9g6OtvjynDD6bV9y9WwWnO0Ob+L2qNQK++PQ2vhFc1byGzcO8pIbpvGC55b3y/YO+0EbRvYWwFz4H8SY9SlOXPV9xIr7aguc7gQAPvhT9Br4gL829r/JBvShgXD2aO3O9gB0JPaUQjr09xNS9wb8iPi5nnb3vqEo+DBJLPbJ+Tj3l9z09BQtCvj4ekDzUDKG83sjOPLbTKT4CjU49/c7HPejO9L2khOK8E0nyvCtM/j3XUCw++1wmPcNnWT7rbR07g17ZvUxWdL0H522+OO6sPYhBhL2PSIy83GcQPSpNBD4cDTk9ut6MPAHsbrvgLb29P76APYgZOr6JZHo9tPYTvhZ5+720rq29xHymPY3pYzpcOdG7tSZUvXfjbj2bSVM9o3qKvXgj7b2bOfo8KdGhvRcZMb7X4Co+4DocvopiHr3eL+k9RFynPcxKCT5Buzo9CymevCLIFr6FmK68vb5IvUQojT37WDc+No5ZPDDnPj74Qik9rD8fvmR8pbxAlKk+ZWu5PbnTdT21Zzk9fdMIPj5SHL0j31A+Sy+mvJ5Ej73Fcf27EDoKPs/j7DyVW8c7de3UPc5Fp7zmO4g+oz1XPPX0E76T09M9zfONvfxsB776CSC9jSJGPSGRlb0HvkW9fwrUvZh5xDzrlhM9qUXiPVcYCz5P6b8978OBvQI5ir2tMLs9oJcrPIiNxr16tp49CYzcvbaOBz6d5Ic9P9HHvBCpbTwG3A0+xshVvWH7Sj7426I7V9YuvakwfL0W0BC8vHCovUcRnr2BrJw8qDnxvQNAaj1RTg4+lfHdvWAk4z2RHqi8JSlyvaA6Zr3iiLY9rmOFuvF7+zwPSw4+UbR2u5vKuzxqe9w94Z/NvRo14ry7pMo9A3nmPL7myLyvlQG+CU+nPWDYLb0/1RO9SXXzvbuPbj2YgkU9IHwPuQwmZz0/+bY9s/OovbEwQ75U+FY9Wq/SPe4GuT11Bqg9wpDXvSEWyj1xyQ4+/QHpvXAVeD5XPUw9kxDyPnuALD3HUqW+YTFNvmzurz6/3i0+S6dXvWBICj5v/ho+6VccvLlBIL2DDR++BrWgvc1Hlr1oTxk88t6+vQ+V4ztVToW+qg5YvBncID6f7q0+0s8NvUAe9j261zO/EX8VPnoEYT5FHIG9bw0ivvRD372QMci9mVCSPamCWTzQdfC8jmA2PiquAz64eCC9f4CYOyYlNT0mYJ68GtsSvMU/Tb1egEG9UL1AvbJiRz2xxYS9iqcVvWc5FL7m5AG+QQUfPaJbnr03CBS+MfNXvVenzDw/oRs+JWADPkdMgTzI/oo9+BgPPY4IPj3s3QA+666TvU3NrjyaWgg+NsPdvdBUFD0HoBQ+oISlPvem0z1gslG+65rdvOIbEb6RiOE9LpgCPmDnyj1Q3Sm9xXr+PEPQ0ju0psM5cyVrvTeLIb2Pz+k8nKuJvMXLbr2wBOi8v7mXviwZgb4TjZQ+sn4ovY69Yru+bSM9Eckova+6Dj5OvF09bsK5PSIRiz1LSBK9E+dvPTgfRL72Jo4+tffsPV+DK75UzOA9ulRxPb3KBT4OLSQ+oESrO/33270OxOc9liFQvQrOmD1uYCg+MY9zO1YVST2b4US9OXaVvSR2Or5ysxe+yumSvrEBJr1+osS9QuEsvbEti70d7Ak+Lk6APYVIRr3kJ/W9SzcmPvLgzT2WDBw9RwJAvr3bBT/bLos+upS+PUDjk7uptoy9IEo7Pa84cD6sC4W9euPEPRNnhb5oGiu9KQgvPr3MsT22Ewc+56OcvUTdhj4Giro9V/AtPUyxxb00VzO+9aSEvmjEC76Dxje+RTSCvlk+rr3YJEa9vTGPvYkoQT2jt7O9suTUvZtWND6mc+g9g0R2PQWS/71/6Zo9s3olO5y0lz2wox2+tJMDvVG2rT2/D1m9Yhy+vazzIL4lvoQ9OTQ3PJaGFz5zyb09MAVevkJrWb3ptl+9EsbCPA4BTL0P4JI8XwvKPSKd5jsrkDo9WkEGvfFCz72cAoA9D/xkPRSNDT1TCTq+1Wayveho2bwTDFe8pBBXPYXN9z382pq9sF46PMntjz0u87A84JgBvjkNAb2Amwg+6dNOPWfu273JuAI8WIE1PmXN3z3NiIG9WXlJvLk087wVU4u92jcDvsHmqL2cyow7pl86vrcCnj3Zf2Y6bA/nvSo3272pmKk64hO2vWNiKr7/MtM8ttPGPWFQgL4zIo89r3z4vQufJL25NzG+D6bGvRWH4T0a68Y7fiz+veFggD1vQBS++cVBPSrlNz3LFxC+5UkAvDvP2Dr/8wC+ikKKPC37h72208Y9LqFhO2A1Q7p9NK68IwsQPi3+WL05uZm9xa53veeJ5zzttGS9owtQvUB0Fj7tzqe9OTZ9PcUy170aNmM9qv3Nu68wBr7Ekj8+rtjGPbOkCr7TdKW7/cn7vamxlT15/x0+fLCBvdS/R74VCw0+GzbfvEMfDr7A0qq9lUmRvSl86LxbPNu9xBBkvuIvTT1wqcC9iEGtPRZmhT2FIrI9iwJCPdXdaD3TMHC6OT02viKU3DrWJrG9OmxVPup0CD5zWQ4+GYTePdSgvb0nyO89VXGZPcu3xD3jeu+8J0YOvo18KD6QUEQ9cPmOPd8HMj7UH5o9cUqGPV7arLzC3JI+iiKwPYYAFD7/fhc9TWzsvSAS4DwcB2Y94S8dPhgQeT0ZXbM9PLUgPnFf6Lz9E5m+ALrEvbht2z39PfI918zNPdLGfLwDdV87nfzDPcpuJ70zagI+reNyvRQuXD183tA879y1PGTTRj3ybvE8Zba6PVpVEj5rhpq7KPdKvtPNaz7EDII+tvtPvrNbKD6d6ae9DTN3vZi0CL3RHBM+hlMCPu0iiT3JLME8MsmSuuRTfj4UPJK9wK5gvc3bFrxgOp097fUSuobbaT2OizQ9YxccvUpfdzrefcu9mPBTPlsRNry+nQg8cgIKPpwf6r4Sj4C8PfzGPFPiE7wnV8I7hjdxvviPpD0Ulcy94s4Yv0txlj3iMyA+3t0qvNgEFT12Ew09a3I5PdK6sb0djs690xGtPfv4GT5jaUW+i3H0PWXu/b3+KGA9X17NPW3dMj6XPo89oH6XvIHwjL1ZC/683u1VvFNGuz01ITU9/3fKvehjN70qRhG+5YW6Pe6n2Twe3TY66f6jPTgpjD1nZKq7eMbKvUMfCz2ejUy8pM6VvXdQdD4yOE686jDUPDGX+z1CjeM97+44voabuD1iSBQ+JH1Yvd+2iD2ll7m9anFSvY2/jL6ZxK28Ry7KPUYMcD6Jo+k9ud/oPYPKGD4XmYa+N925Oxh0mj5Vueq9w3TvPEIpaT3eETM+k9dzPeVLKz5wFvw9apMCvk9/Kz7hxAa9LIrjPSRZ9j0XNIe9a6KpPYFWfr689DQ+VHRpPZS4LT4z/xi9FSKQPS7WmLznnL283m02vvuri7qP6gS+rZ8avTSfMz3qzde8Uc1LPlBR3r3IwKa9FSNHPvSpS76vi4u8aZJmPEftTz39UW0+wMYXPlRCJT2urC4+FOiaPa3eHb4tshW+QtYOvv8wITzDPYa8CFUIvqbYHb0ACpW9ZaP3vbvY373QQMe9uNK7vfDCBr4h7R09uLkvvYXbBT3iJHQ9/QayvWOjQD3sCgO+3jcePt1ekj0KSUS+6nptPRe8tr2oRNc8t303vk/ORrzlhlo+DS1VvGr6MT49qUM9EZsFvgxw6j0yjLy3f3ZoPbACN7xcO2g+jgwZPXOy675qIgm+0oOgPs4QXj2ZBh0+0mCXPJWCFj2AmrW9MfyhvT3MBb5oHzM+KYtIO7osNTz+xZM+sXr2PYALe76gJ5s9vKf0PVmlIT/2JMC9Fj1aPtQ/1T5tH389/EMiPYPlBj4nADK9CghmPQrkl72zkA++as6LvOmVRb566Bc+VARVPgN6p71aNKS9Qha3vNntdr1xZJy9PPzIPdN+NzztLfy9X6JDO/+FLL6NWAi+QZWmvdMAej24Mbi9omjWPD6sAj1q7Na9hUuTvT6ipz6J2dq81UclPRVFXj2ZqeO8h1w4vtCahr1nO4k8ZA/VPJ6ijL30ahM+V/+5PiXwPr4fIwg9vPLbPaMwSz0o94i9qykGvpb/gD1O8Hs+2qMMvnH+nDxSZZI9IgPwu1t/R70zxkY9H9QgvPfQiL3hxmG9OA//vXv9Ej5XDq+93HkLPoDsP75dVWC+Qu2pPYAdyD0deAo9GwdnvdupKb0Tu4E76FoYvmyShruTjRq+zK8HPHT8nz5c5Fu9eS9bvVqy1z1L2ci9776sPdtKg70ML/292H7XvV9UN7wF86Q90JefvS0rBDvZSw0+JNy2vEChGr6PvFS9kCsOvraXhb2c+Ry+mX0qPknFWb36I/W9YCoJPhNieL0ZVyW+zEkfPuuRSbx44bQ9JUHIOm4UrT6/VRC+gVUlvpx0i72rONE+R0CDPc1Ikb3TFG0+RBtmvTAUZb2szly81iPnPCjZTbzcERU+ZycgPla+LD6uAho7S5KdvaREnz2SQao9zn2ovVDkRD4b7Gs+ilZrvlTjpD0Qxke+vFgpPu91JD4B0pi9A2KBvXdz2jw3ZIW94lCTvnSH4T3YhDC9QHlGvMro3D1sewo+ZPkqPe2sS70Zvow9nkgsvlemVLzLKDu4cgI5vY4TTr2DvFg951u6vEs60z2JzOG9/B7OO3gObryreyS+zxtxPWiTvj0Q1tk7Pzi+vEax0z0yN1w9dDiaPPQnAL6UJQI+EwWCPbnugb0g+G4+TwzAvMb/8T2Jso49yTOmvfSpQT2h/si9TKvDuxkiyT3rw8E9V5RwvBkzN70oGBO9GSojPqQZDT3TKy++CXzHvcohxTyYS6I9O7knu49djT1kpuQ9CiyhO2PJg73Zn9K4k/TDvZDd/z0pXwm91PbCPOXZiD38ACM+4ry+vSkUk76CKq89/8V2vh2lvLz1SQG+m17cPY2m9L1SqQI+D/gDPSvuQz0g2XW9kc5PvI+01L1HHKy9ECP2Ophr3L1E5p89AniiPfLpjrw9bNe9TRBAvY5Cn70S0Bi9j92mPR3du70iQxU9oAdVPdf9AT5niTy9TH4JPZFxpz2rQp49We+vPu03RL7LKxg+Ba8jPSu9Ij7tVS0+ugkuvbDFCD683Iq90a0LvNiifD2Mrz+99kv4PcJmJz2Q4jo93/81vg7hFr7AtXY+HXgKP9ws4DzZ+TK+9IgBPnOiFz2qRei9qWEQPnAodT5p3Nw7c73KvRQiG77cGFU8+rmPPX2HOz2/rla+IT9AvXeBvb0O2sE9aG9DvT2VAT6zUgs+44PTOz4Z2T1WrRM9cTm3veDdzj3BEMq9KRUCvmbd8T3iNCs8jcozPc7EBb5McC89dNjGPZE7RT5Ks1y+k73NPSWEvDutnby9W2wBPmIQU72VSNU9545tPa/BCz7BYwM+dtbwPKFeqD0r2jy+0zVRPdxscj2+6FC9OtQVvX4/2zyWhlC+OYuJvXrAKz119Zk9z62TPcVnFj78rG682ixIvT1r+L1ZfRk+L16JPNpZmb2DnRe9pD/MPW9RGT1a1to9pdzcOiLhPT4bII49pmQCvj+kCj7UzNa8k8LmvJetZD24iVw9yYzPO0uMkDzswjw+baAZPWLFX72kHsE9QLVJPbB11T0UhtU808iLPb2trzyObg++of91ve88jrxz3Tk+sv4YPgUIor2xbGg8YISpvYpTPzw2dyq9n4wzvPNe5DtlvjE+4+NsPRNHfz3fBeY7INHZPLzAMT0G0ac9FgvrPVRA8z3+WT49+OfgPZM8fz2LNo+9WvZQvQ3Dg706Zv+995WCPdzKvz0qcRW+7G95O1Sj4rsmEYy9bw76PRvPIb31Wo28JdjkvWYbgb4T7K+9tH5FPMTIgjzKpPY9mJrZvN3d3T3lOuE9A0aIvXXh+70Xfy08gnZGPB0N9L1AHCM9IPpYvFBTpj3Y3bC9owIfPt0MyTtBofq9hcmdPQVhrzwrdzw98BHDPXsXtz0bdb29lkc5upkwyj3X/V478Bshuxb92zt/CLM9hqquPhQRzDxXF9g8CYBbvbS0Hj5ZpK49qinTPYOkwrwuvw4+NHJLPXzfPb6O7zE8dsDjPQ6i073Zu4E9exlsPkJCszzDNJC+bjROPoLT872oaE+9kWCpPd3Nx71+UHk+eImKvftSVT0JFdm9BKePPD0Quz0weVy9Y+ElO5xwkT0KcHY+wlJUvgcg4r1zVZQ9LoerPalKF75wggO+heaOvTOqgL1OcAo8byUdPnMgzLwPiiw93YR5veNVAL44KTq+YUO4OwquDD1+ZT29JUPmPRt8H70X8dU9W86dPKb4E72eIKG8sx6OvTh+or3q8xG9K+LLvV3CAj3Y1h89CCJdvGZrGr53AbM9cavlvLdwxDyybYC+JbHSPGUHqj0+1Sa+sHIePYV3pD2aM9w88mWwvXl+8j3GU/48OTrcPdjSJD/t5GO9BdiIvaeEMb2eGuc9qHbSPcckpz4eH2g9TNaLPnCMLT1Xgda8I5ErvtbRpj7bnFQ9abbmPT4RHjzkSQ4+WScGPkHDGL7MoMe8B4yiPgK/fr2LNIY+yUFVvfA+I71HpEO+DFyGPYYMBj0xs5E9dwAbvS14B74fY+u9+7GavrAyRT1FbGs+C8WRvbov+7wC3Ag9soDOu8StrTxerCC9igtbO7lsLz0Y8qU9kEznPPFtELyUjzG+geI9PnRV2zyMWje+6d5AvjjOuzw2rrK9C2Y7vn1fN71eXGk9ThqUvUKQIz6DUUC+1TV9vTR1KjysrJW94st7vZAkID3o3KA+iIVcvuGwFz4pILu8Xfg8PRo6yT3Q3488ZLH3PYZvdr10Rca98DmgvPZqtj1aIxq9uxy0vLAmNT22xV29V3zHvWackT35qI89pYwQvlxQ9T3/NNS9Xp15PYKv+j0UTaS8TmLjveOSZzwUPQk9C7lBPJ72yL0PpMS8DpJoPYGSkz1IuiY9Q5nbPewV6D3o7Co9UH6DvUL5j71Wsia+7VbaPfeEVr2zf/o7p50dPHRC0jwZ9eA9EI5BPQGIJD45mLk9g5kZPrTXWb5CzZW9ATKLPQWl0r0T+Ys9DK6Yvj9EqL2yNDc+8L3KPCHh1TvM0gy7DC6bPaLh4r1rVGi9hROCvezzBD5VqD6++/biPMT69z0U22U8WWqLPZL48LyFl9E9lUCZu23zb72qQLy8G96UPTQzxj1UljE+hmT1O6Nl4bxwrws+VtmEPVQk4rz5hZO9BR/vPTsEmD7ILLm9L+YMviw8M71JZKW8WCKovrSa+r3Fdfc8N5v+PVBnNj0ZiAI+ZphAPXvNYjpY/g68ed6nPTRbtL2NV6e9sNLMululZrxwG7g90OihveFrm72cJGI9mEuRvbrapj2J0jS+AyRJPvqCRr7RqRo9K/uMPEcSND6Rh7A8JMBsPGA2ar6Fw529BYDJPYKyWL3zHHc9yI0JvuUmBL5oJbK9OoGhvJ6ovD0TFTO9RnfaPckBsz0YoIG9EWSQPeZknr1u7I08h1R0vbFVFr1bsJW9gLP6PeOJ7jz6qMQ9e+xKvWwn1r1Qle29XP2nPX+FK72Crhy9S2LKPb95Fz3pwSS7YP79PQJELjoYQcw9BuWqvSHV2b37vrc9RO7WvP54sLwyE3C9dG1TvFSkqzngey4+TzaLOz6O171zbrQ9LLoivbaxmT3jCdC9xQx7PECkv726HQo+QSCKvaFKjr2UJvs98ZXsvdHuqD3/uwo7Ija6PbFxyTstpr299HXMPM7FIz0laaA97n9CO0DYhz3rcYQ9kM/bPDC9MT0cGcW9ovDOO66OGz4ftEq9SC4evWlr/b212NW8a+2uPOMr2T0KJoo8BdvQPShM0bz1Pui9NauOvTRvuj3fe1S9WquGvBXC/jyGzH89HC0lvA2bij6f9w09/5tovDEm1T0VzkC+onAUPUxtHL7MeCk9JCm2vfJFpTuLtYa96zOmPCAhMr00c7C9Gdw/O2zW2T0OIsg9RPpePaRGpzwRLmC8c6+hvXujjr1KQt88EJDnu8unSD27V4W9iNIjPh7LJ7229Lc9Lfp7PUHwE73eo4M8XNmIuyD/CD6zqAi9uPzbu/wiAjy/2To82jN2PODSEL5qyig80GmhvKltTrv8Sw09rESkve2AA76/PmC81FJiPf296broG389UXw0PE7Nab7/rUC+fsfevfecu73A6qY9gxqTvLodnz1dCnw9LLmIu9Z/FL1zmR0870rePNncxb1SoZK87ciHvkYjnjtXJho9IFAjvqLS5Dx1unu+jlsBvi0wNbohRuS9+TZrvrJaAjyAhbm9n5wKPp8hCT7944O+mbYHPT0qoz3PeIw7XXmFvb0kvD2OzI09ACjzvJYrGD3zKXO9LPpAvWm2FD2Hhv67Q3q+vANyq7yrbuQ9eJ3lu2f9WDwM8989AA7BvUvCdb080xi+wc5nveustz0++ek84ROYPa+RsL0sPue9E+tavYoAu71vZ5S9OFT2vXFLQjwufps945b+vYa4gr1tq9K9Yg79vY4QBr6vDMq8PAmhOvKBmD0xaI69lnADvE7w4zw5Upe96kz9O16zEr7KRzq9Ps85vQ4Vh7xP/5a96O1yPaEjpj3NvTI+HlQBvifSib1usCc8CLTPPFx6Wr38Wks9AqmDvWamMD5By4g9jq+wPSgsTj3TLHy+tNDkPdpWLLwcdiM9XGE1PR2d2j238Ue9axQivciIKb3uQ567+WO/Pc1lBb3PWTM9TArsvcvVqjy9dI28Te3GvLMdDr3AD2E9fkjbPGPDZ704Vsi9D71TPSIYLb2ZqVU8cGDBPbX/GT3pqg09c/GyPA6eWz3W9oU9LSL3vabvqL4V1fa8IyWgvVz49T2nn+g9FDM3PmsMkj317DI9z9b/vfAsKr16E4A60ORYO7boIT7LgW89Mi3xvP5HBz6XQAw+yOsePu25pLxHSYk9Hq6hveM90T1RAMY9hoA+vid2oT1GvBM+ZUzgvQmEVr28CpI7AmP3vLeyUT6RZYs9PNcgPZOW/DzD5lE9b+6VvTm1SD15uyQ9D6PPvJQR1j0CC1i9MnH+PQkNE75xnV89C+nVOnR1q73aezK9v9OgvCgymbu6TVA7EJ2bvbouEL45a+A9AU9evfFaBD0HHK89L07FPRe+hb3KHQA+oATOvWnTTD56rf68hf+9vjCtx7tdT4s+vIPVu2Z0nbzGLL09AIC3vQIh7DxUdaM9KIjLvO+Saz0TWvc8qoHJvdfksj2Bvry8sgNavtTxiT312pY9m974PA2ajb6NIRe+rD8+vuTrO76XvlY9PgMMvcgRTr3RAUM89y8BvdCJh73aCi48CQKGvSgkx73zdAO9/ltzPTv5AL14QlM8YjrFvZ4EPT0pbNw9an3EvYfKWr14R1I92ckEvcUWDz4QHwC+jlOHvX8mDT6vLt69J0N0vW/lHzxCVD6+WPCEvOOjTj2K4SW9uGZfPkXR3L07PIq94Cg6PruvuLzmYMU9Us+JPX7iab3h6bs9JWoLu/OKYz4HjOM9MzVIvnY/zz24stw90IMfPsYY473q1oC94KufPIb/Cb6EwvE7yMuWPcaxGj5zjyC9XDgqPZqaTb6MlIo9MYsBvelQLLzvDL698ZE4vcO0kb2VnIw8e/KMvRLiQL7cv4O9r9L3PDLi8T1ynbM8oou4va53Ej7oEvg9Vld4PYXeK77CU6K9mrXuPUGppr0OzxQ9B0U8PSbqFz4zvSw+BoQSveiwYz158CK+B/vWPeP+Qb1eI888f9gOvPPisz2wY4o9UoJmPlekrj1D3UM+tdFbvSVGAr6Vk6q9/gIlPv0NAjzZAaA8V34sPX8uzrwUw9m6+d0WPhinIj4mxCu+5hoDPdeAFz1uckE+t6k7PQdwGD1x/QI+cqb4PXurjb2kkpY9ofbuvVOQn744lfq8WuAjPp9AEj65e8s93v89PUXLx73KbNo82bWyPXQIOD6cH3o+xJ+AvuA1+r2GnYW9qGlMvkQTKz15ixy9nJSvPc78qr3AvmU99ku9PQnM7j2J+SQ+IOubPT9aBD7u8sA9Hge6vSt9HT0F14c9g6jyPTSE2L13PkQ98rKpvKA68b1hwzG8jO4DPZ9gBb6oqNY784rYPQuCOL7q7Eq9u8SwvbZBvT3mQ8g9LV+MPQMGAr4rjyq9vlo5O47gYD3zedS96MIRvvQNMzwakCi9Cr2xPZH8UT2+6hc8wHHivGD/Bj5HJTQ8BW+bPXhFrT189DC9iYP+OSU4c7x6s7Y9xayNvUUXKr5VXoK9NzQuu2YQmb3XBaW9Q8ZZvvT5NL30bUs8adeQvWW++TwpPCC+shwevlprJL2J+IA9pEIRPCKTHb6+VKK9PrsDvhQZS71sZcy8tKwOPrE5qD17BLa8CFkBvRljkb0W6lg9FsszvsHVuDtQ8Xy9EX4WPXShKrzv1gO+t8c2vWwCIz1WvMM9NucRvmKMeDxX0pQ7AVoXvUpfxr1ut1k9NmT0PQRfWD0paCQ92yl+PW/fAj1kkTi+AeREPoR6oj1WOho+s5kePWGwobzSa8G9+uSuvSfuhT0eLMI8G4kFPkM+hD0OlW86rNmCPq+neTxTbyY7i/SxvbgrMD0JKRI926cdPqTm/L0Hrg49gFmoPbRi+T0sT3a9zjLTPU6KmD4Ddnk9dQ2tvWKiEjxX7Qa+BprEPW+Egb39PJg9tpDxvWzsqL0gizK+YeiPPT10UD6P2xG9fLLtvbB2pr0EqYS9NCIlvTPncT2tLRi90gs6vQXptjxe1so9NY6dvfrGCT1YsEC+C1TBPHqSOj05lOk9QkjdvI6aKz6QQH29B69fvlqsFj2Cyym9EjcPvqlZzT2Dvfa97hcKvtGW+TvihdO9s08OvQTWl70hKwo+ld/8PXQmir5FJ3s96ITdvJM/XL16lh69mxfcvUbanj72oaS80WqXvXQteD1Ja6+9lGgUvde6372KB8s9T2+WvHnGhj1xso2+ecggPbCL9r2uOZK+NUi3PReYhb3SKx09dUxjPoq5Ir4EuGS9ooaOPS4c7D3W9Mg9LTgwPr8p8T0xBW29yKs2vWV7iL1jKaw9KxcfPuvW2z3hi+E9UFb7PEnmVDtlWAS+jGmcvTAXpT0NPBk+mnWkPYZF/r26C6k9zneePP19DT5hrUY8NH3xPXVmkj4iLfO9ox0BPhaKnr2XZ8e6RuCGPcdqMj64ipo9D6cDvl51Tb08GIQ9/ysOPsj9MT75O269dy+DPbimF70my2a9qubxvcdc0r03TSg80q7iPAg9NLxz9gs+ltKQuwHhmb1bvJy8cGkfvgUA0r1RWFC+HW/SvQTLfb0fSg2+uljovO/BHrurmlE9N2CGvRGF0TxC6fA8+YelO/cCID0Qc5U7y/u0u3E4JT69mIM8r5YFvnC7d75e1Dg+xcHaPVdLDz6/yBS9utzpPWCC172ohj8+j+I/PQtjeL12Erc95AsrPu2KCj5iNGE+xrALPZjsrLsh/I094BEGPgd1Qz67PqM+Te0xvkopVj6nWyk+17g5vbAE4zydfEs+gI97Pez+Aj0qPmc9xcfFPCY6xLsmNbK8qyi7vRsp570JTMG9vovLPMEHij1/qAW+Yo8svWI02j2GxZK9wnxtPn+mrD0t+629IKyEvXlXAD4skJ09ImtRvOkjGr7ZJy4+SEE2PU6a3b1xlN+9zEibPfOUuL2exFI+Nc8hvJhv5b2JyLK8nWYevjj+7jxqeB2+MWMHPQMuDz5Ar1k+XeCHPZIdjr2I6jm9Q6HvvTeyNb7DaLG8462dPC14KL0kVx8+Z33bvFNe+7xyu529RwYzvss75rtfxTa8Z74lu2Mmrj3AOxi+CRyivSHfHj1D+Ei+6UC0vTHKJL3ZEwQ9ouWnvbcXKT5IzKy9HcF0Pf2i8j2unpE+bIV1vEhxWT6eGw89huUSPRjjCT48tTK9yFGwPbGzljstHsC81gK/PXciRz7Y9p+9pGU3PgRx6jw3ljg+KrkZvGfqwD3emuQ9t7W7PVOVCD0NvEe98eUbvuX4nb4kf5M9R8gxvvYCsz1N8bw88ACaPR2hw70Vk+G9r6FqPIpVIr6LgQY+FnA6Prf6tz1rv/i9o5kQvnp9Wj1hpES+0UkDvAgPwb3sdZu8f1wJPmsDsb1voyq+ZY3kvRw2Gb9DAPW9hWfWvUIeCz3LyP69+jM/veAXO70+MQI+5pOMvh+C1jxzfaU92mgBvgkeR72FabE8gPhuvegDMD7TPWm9td03vm4Uwb10mDy95rRTPidyFz4CISU+JHjzvO9neLyJJUA9I780vVLFsr1FRoa9184ePrlFZD2Ud4o8Ou1/Pfu2wz3iGgG7fyZRveLZfj7AYxI+K8CtPVmRjL7EfU29f3tjPeoMl73LTYM9OnHYvRum8LwTCLs9aOv3PQQuaz0fEsY9FD16vcitfL4rTAO8xQFLPqCCh7uIijy9nMcSPsXviDxe86K9O2jQvPy2MT6moV491/DLvXoJNz69i32+4NeqvWvoPz6r6yY9TFNAPhtTWj4rD7m99NIovrBoPr39cMQ8KKjivIp08jyOaE49uvdUPdrvAD5nuIY7gNLjPNWqJT78t+W86IkdPvqeYD1RXeE9xTVIPWJYtjygr+o9CaqHvZMkOD7lmky972cVvTSZKD79PVg8PXtjPtD8YT7wZcU9/3hIPnMqQr0c68g9UmuZPQtWaT799N+975DeO3rG/z3hwTi+EtyjPUXfEj6woqu94xxkvcxjnz1gdDY9LD0avvpXJD7+vgO8AawHvnIkyr1EQ6K9CtyWPBFE+r22h949+UDYvUlMkz0pgEm9sa+xvduUV72cK4i9DdeHvisoH75DRM+9O0A2vkNr47yE35296e4OvmMuLLsoF9I8OIlRvQRGAT6tuOy9VM8hvmmcpzsF+7I9PkvGPfynNLylKSU+er+ZPeQDmbxzr2c9u7zRvI3qEr2w94G9oTH7PbIg/D1qq4S9rVeOvUIAVL6GwQw+bEPyPbLLjT1tjRm+P/WJvVrilD0r5/s9jFc5vZFW1bys6Yg+4vFnvYB7eb64FLU9b3kfPXVLlbwnDoy9MG+7vTWeqr35tCa8/TC8vAAF5L1N4Yu9KG2gPYgEJ75Unq294JbFvXrc8L1woPq8FOcLPjhr672qTYM9HX/UOwdo0Dz3E/G7R3KXPaA3ub2O9+28GOjrvcw0QL4tQIS8HmgkPCVJHb60d+g9LEFGPbmxnb3TbTQ9UaYwvSXymb1BMp48uCFvPA/v9z0vmBA+/kWLvK4wNb3LZkK+uo4tPiu4ND6tnGc9lp1FPSQN0bxiOCa+d7yLvNI+Lz10Yc29Bz3PPRFL7Dtz0pA81HqUPVph9TyIxY49l1FvPkn7Cr4jeyy8x9/fvZbqDj4pEc+7s3ErvbxWS729TY49ffEuO09S1L1yokE9RhkcvnziGb5rqds92yrmPFr8kz3LWKu9sskHvtLclb1NarG96azrPQRvw7zZdH88yLqdvec98T2O3WE9LgafO4yd5D2WBge9W7UOvrrZ6L1J4lg9YqWkPSwDD76kdTe+tXvNvPNlhL3zqke+RWeEPWocxj2uehU8ZqnDvGuXsr0enx2+R/a1vPKMgr6KjiA9ggo5vOb8m736Ppm+ig1avqJS1L2tuwE+KRloPneCLr1JYRa9dG0IPtgoAD6SU+S902cePcC9zr0G9Ai9B0hDvGhcGb5F1Ik9gbaPPLkMz77Klfe8FGzTvL5mlr2liJo9iBgUvgR/J76VGQe+d295vMEHCD51SoI8mtR6PBHixj0v7XY+wLOWPRvevL2kp+K8/z24vBQAM710Xgm+fZ/EPVIXVL2mEre6/RePPU8tm70JnU+9RuyJvISYvTxYwBk+kCxMPux5NzwynqU9tmSWu20vEj5DiR8+N7TZPUpSfT0tHaM9Gk7+vY3w/b2/utI9WwGcvQ5NMTwgPq2987oyvbyhCT58op+9OB1EvdyYcT2BcO+9yc9wPHNlaryd66M9FweJvKCqBD7EEAk+guCAPepRm7zZ9mA9cwzmvbHEOT7+J9i9+TfpPadftb2ikto8BZAnPQF5Zr79vS69/npOvcm3/Dw3ioQ9eRaKvVLAHD5W67a8cwyrPP+WML4p4ay7Qd8UvsyrGT5N96g9hGKovXXFPD0EESu+fosgvp1SBD4mqqS9BeUzvC1HpTxoMzA+7WYnPfM1+TuxsOK9UucjvkoAaj5cbtI9XmjHPPKSCD6xZcs97Rw1PnW1jbwq/Rs9nOGzPRVPnL0OmD+92XejvM4JhDwnQXU9PfwpvrH+Xz3tmsG9Fsk2vTCmIz6myKC9mQRfPZay97xdQra9AzMJPtu9YL0rKPu9XtAJvX9GIr251YU97SxivK5Jj71vV8a9vG0IvI1rxD0MXUe+sUqmva69z704iRo8uStXPZWSFD1x7jQ9u34Uvp4qlD3hdC6+FMGuOyApwr0Myig9uhJlvVPqMr3sFAW+wxj2PBV8JD0IXJc9bKd3PQD5+z0wUKm9y19ovep7azxmCr49ftcIPPKfabvgHIa9ugnPvcrHIz2c49W9HqTSPDLCHj06+oG9SKq9PVCRuL53slI8YJBIPXYjnL3j+/Q97w1XPPcTkT2HuhC+U1Y3vcQOQb3TOsm9qVQKPgSRAbz6cHY9w9bSPWZNBr1Gub47me78PYgIhT3ga709FQiCvRGq7bx5sZc93uJnPrlM1j6EhJG8Zxo7PfIPSj5m9zA93DisvDfex70qTUc+1EHcPbWjVDsM0W0+IAboPH6Ol70EnCe9ZuYHvsZNob3O8+k8Ysg6vg8INrw2rDQ9Zyp+PSN8mD3I0SG+xa2lPVzf1712syA+N8Chvbcz0TsyV3Q9YbcBPEB+Kb62ZYC90zIuvRdENL24eza+2EU2vl54hr3EDJO7xsxDvXS9vD3Emcu/Mo+/vJPOEz0YPCC+CpBDvEVtmT1axgW9+3CRO6ewCL3k+y8+cfuyvcBLaL7A6As+BW9dPeWfu70nKMY9NwwsPvzt+DsOj809APARPb2Dr71NktQ93ap9vaoLEz7DTG08HdJ9PbwgXD7q9W49EEuhvcpTgD53GJU+LT6tPHytz73Pcvc8Ii2vve8ZBj5+kvw9VGyFvdfUuT0xhyQ82J4OPsnTPT35Jjq9naNsvv+GUb1BfIg9vF5IPQX70T0DRD29ZkeDvYd7Fb2SK0492op+vr+CaDyPXx89lTI7PntE3r3k9sm9xZNyPXjDZj6D3lg+M7fivXMa7bzLLcy93KAZPbnbvTxvx4W9L6SrPYtzTz4/y0+9xai1PXUJrTtjuEe+hULXvVVX+T3RLfk9cKSbvUO1D75/ip88cuiyO1Xb0bv6QJa+F/XgPcXfZDxzAiY+S7HNPcW01b3EAAW7Z+1XPWBpDr6zq6M++pw5vhXFZT5jqLW9/HH3vT/6gT5IwEM7ZyCwOrlplzxmqeI7952ePL6zPD0Lpb88pJ4avjgHFb1nle+9KjcHPPKT2btsXow9j4buPTGEbr346Pc797tJPNOXsj1TwcW7w4ZhPP13Mj1ka/Y9qoJSvXw6L74X7OC78y4XPnc5Rbw0Y+29c0abvcRRVb2WJ7u8myBPvUwgH71e/Vy9Vm6SPUs00j10ByI+r2jHPbt1rDwwZ6o9983TvGq8AL6kfAO+u99EPvO8FT0r9Ja9b0Y2PewLwDmbfnQ8Ed6DPRtJZLwbzZm78PMovUrg4jwHRoo9UKAAvp92Tb2ruAq8D8HNvAeOgT3WiiW9Dex2PXlq4DxiXl687vimvfo0kT2shtS80Twsvf3Dqrxk2e+9YSOpPfgWA73X5YE9YbTqu0BfkL0jEnC92qK9vQiy3D3HtbK9VYRGPUtT+Lydu+89PGXAPQKHC72lKP496VgXPVaSqD3I39m8Zy1XvS8LtD3obse9JFuGvYH+973JqKE9Pe0gviJT1zz9kYq92McNvjDJHj5zHtk9ikYJPu886r0loeO9+m2wPKnyrj0qw2u9byjJPaas8DyDOkW9Qc1yPkvYDD5+XTk97HTxPCFFf7w/zLI91D94vcvfl70yixg9XdjQPbsK6r35WBc+6u30vfDjDz1h0IY+kcwAPluvXb5ZqWy+AN2YO70X4L126cq84f6lvXqaML2cMYY9QYABPVMHfr2+6BQ95QCqPO5vUT0odAy+g3cDvY0zDLx/rIw9HPxgPaGUYb3kgiO9SdvQvZEWWr2is8a9N0hFvemuoTx/x5299GCZvH/c3zwLc8o94aivPQuV6z36mGu+jzU5vWX3F7ySdR68Z5SQPSSXhL04yMU99MdGvTwRXrwyRJc9GC8jPTXYzDygtiC+SBNuPkspNb6jN9S96eERPTmXPT14Q9e9DKEWvrGVWz0kGhi+74rFvR4Drj2QVkg+bsA1vejaKb6qrxM9L+b/vjKh1DubFjI+sPUSPdhU3L0+giM9cfLbPof3AL1qVYI+ixZaPTnFsz1fzGA9CJ/evQfNNT1/xA+9QSIbPazXsr2xueQ8a+pFPDSb2zwr25C9AqkDvlE4RryxceY9Gy+qvNCC1b0WbWM9hCrcPJC4hDv1vok8peUGPuc25b01Ohs+tNkZPvA8pr20cjE+M2tuPTqMHD3DncW+73QDPknw0r3PTmY9903BPTyRHr1z7Es9j2AGvm4LJT0n7569eYu/vV9bgj2R2nu98+/jPRsT6TvarwO+MS3IvUxzwLsSge07qN6ovb2vgD3IUmi9BOQMPj36pDzVYtk9tHo+vFi/oj2DW2q9eMytvIv1PLt1Xaq9CyQgPmzvQb7deDQ8jlhlPHv2oLzevIO7t39HPWtC0L0H2SO9FbwKPnU8ID3jDqw8b+E5Psp5oDvsVdi+/6yrPXFmqz14drw9KUZsPQEWrj3QUqO9EnVuPZEKUz28qUI8RgX4PEbovDsvB7E9iSIWP7MJzD1ofpM9ii80PTSBKL2SiJc96IxHPE8ZAT5gQok912piPAnbwL344CW9xxU0PoQJnD0Nk529ANJ/PWVMML1U+5o92yysPZKn0r4rFmS9tAizPXhRgL25pak8ST+vvYTtDL3YMRY83TXkvbf/sL1L9UW9759RPePX5b1l6Ha+jGqavfKAuT1eaQ8+NZETvobbYr2fRdO9NbZDvYLwIb4mKrK87XQKPpPwDT7hdkQ9v2nOvDi7tL1ZKHw99rcgPEYxmL3+Mc+92gTIPBpWpL2q3WU9nF2evP8Y7T2RiLq9HXGpPdowfj2mD8Q9eF0LPspnK70megE93VS1PQDEcL40GCM+6DSVvVSJ1bxC8WS+SV6Uvb6q7D2n1jY9+g10PFFYGr6vMxI8kfYZvZbViD3DRXU9nuYKvaBVtTw4DiA9f+WrPpTUITzS38i+tkoevKyq2T2kVWs9UI+Mu8gGGz6fmiM+93MLPeB+SDxD7Ii95VWoPRLDFbsjFCI9vDbePZ0W7jkcIh4+YcXmPVAglLxPHpW9J1iPPsh2ur0V64k866jLPcsPSr6KTyO9tOnGPVCs6724BYo9wG+wveDh6r3+Lkq9b0cQvkVcUb6x0D+8o2gGvmHykr3CO+i9gctgPWm6Zz1VHjc9XB9gO/bGxT1iD2U9IniVPX5rqjxtTt+8TOYROsOjKT03XRK+KfMzvtPWzzxJyr+9KralvRLAHD7ViA69iP7YPNAWEr0KbAi9BqhoPXwfUj2JkiE9bap5vWGYpr2jJae92/8GPkQ8qL3P6rY9BsEZPHqLnL6sLAY+9vIjvla4CDz1J789ZEb7PAAJkDyRIK+9INa3vXSSAD4QLqS9+twFvgebrz1zZ9U98vb2vaQsO766oEE+CC+jPl2bhD0+xiS+7RoRvfW0wT0OJVi9h/70vDBMNz2M6ra5WXahPfowwL0hpuW+X1P5PbLQq71ujps9WQn/PZIK/r0oYo49sz7cPUid4r0QiAG+rmZpPOOW4T3pHhG+yc38OpARTT4apxq+tkccugtBlj1wdBm+CPC2vYkMlz0MV1++9MahPFDT1bxyM/w9qxZIPdS8Y71xVYm9ZiY0PgtWFz3VcOM9y30yPn2s/b3kTK2927YEvX0xvD1VGg4+plwKPjutpr1muMy8ySSSvK38RD6QWR4+qTRrPkyXD76UiBE/FiZzPQqyQD4e5Jm9makuPpbMsDxSzZe+8xQYPkzOID5wBq+9/ClFvY3dnj0a0k4+Nn4HvuBUe7xijpg9dc0rPDdmVL4F8mu9mAL7vHqlBz4GS6c85pv9vJq8tLvlmmQ93h3zOgIddjyV2mI89ktQve24LL2lXjQ+4js0vZ6BpT0gHBK9AkjDveZhvD3HfkM8RgfNvfoVwTws/o48QEi/uxTdxbw6pTA9D5DNvbl5fj0c/xG+w5Y5va0FWD3gnfg8ltcnPdE4b71kC/k9SbPVPT4g7z0mytA9GnIIvurcQLtN7ii9k/2SvVtJ8Lr8aAq9k2AYPfm6mT2XHYo7EBkjPkn47r3uE1E9N6s7PXapz7ySSyg9zCRBvZyEcz0qmNY9RK++OwC5Mb3pTyU96mQZPQfNH7u3rBC+ayeOPRRSj70bMDO+KtyqPcNm+T1rbwa+8Xj4veSj6L0qu5K9Px70vOyNUj25bOC8TZQ2uyNgXz3M49q9GA+uvSZ03b3nCce9HSqSvV4CoL2dC4s9h2lBvdEgFT56j7++alx1PWqrVj4pksm9v+sYPqa3ob1uiwm947PHPBLkAz5oPo48YZsPPrZfiT2Edwo+AgiPvqr8ez1N7sS6xeC6vEFUoL0fWI49SGkuPgyx4z2c9K29iyxLvR4tWz2ZOvS8n7fJvfJJTD6qs+m9C0jYPYbYir3Ahxo+PBTOvH7krz25oKk9I62uvdZjAT6CQX0+qwnePZAqLj0A1c48LdOaO41NGb0v6yG9mzAbvMesR71iEI89P0YMPQiizTzlpeu9KAvZvYlG5ju6FiO+X58vvbBnlzzKN4g9aj0HvrZzFL7qwYo8Y02YviuSEb5Bxt491aLgvVYPaD1A9Q+9wo1VPpOjSL3UdRy+yhSbvKTjyz35SJU9n0tRPezit70yJrO9ch7wvbNX671Foew9A8mHvTe8cj4LgeS92qSJvVRnRL2FwQA9LWvsvR0Y5r1oY/a7LyqrPQ4DEb2AWhK+8x/KPNGpUjyRCQW/kQInOyHwrT3BW908XQqPPWe5or1lfA0/Dd+DO2N4urxTCpO8e3ANPngZoL20JxS+oG/mPUOJ97wk2fS8IDMxPDBhRL1X7L285krCvgSJDT2jIZc9re1sPCBeGb2YMM27kCjHPLIN5z2tOGg9dFmyPJALN70Kp8M9Zg/svRlYHD4UCCi+9UTjvWUjAz5HaRm9agUQvSsAGr+Br/w9ufQgO/XpGz5dOLg8aer4PUu38T0n5x69BLc6PdACJb5cA669ClbpvVgi6j0t7A8+exDAPHw72z1E7Rk7W8SzvXewG7sTvLK9p/jfvf0IKr1ua068hFJbPQ/sYL1MpYW8phnMvT5fCL0MzBG+gewCvodlUT0sGg49UmROvhBCH74aVtS8MeWBvLnNw7wS8gq+vusfvfGrs72Rlqk9GN0rvYwNFD37WYE+pQ+WPSqd4L7n46a9+IwIvVStQT7BHvi8o4jXPDdkLDqODb49uamdvcs7zT18RS28EcevPaQWnj2GUBg+MYYovVxIOD4F81G986+6PZseDT7Y6NM+NjQaPTsNUj7emb49DRlMvcHBvjy+4gI+33rHvB4Flj2vvo49M1GkvTyjgz3fqk88KqpuPj72tr0vqMY9QqIyvA/SO74eSys+MW6LvpM+eD1SlCW8HLNYPsrFMD7uYMw9AaBGvG+JGD6M4Qa+ffVSPQQa7r16eKc6MXC3vdu1gz71mAq+mIf2O4kXEb5SbcA9W0ZGvXvGTL5eTAy9WkSzvAR8Br7NFGQ95F5+vcrPOr5FdYc+dChPvHXBE73lfnk9LaMEvr8pjzyJkmc7dn5OvY2mqbyh5ZQ9529FvQ77Tz0wGgy98iu7vWf9hr0Gcbw9lZATPnFK4r0IwOg68CZGPRJ6HL6FlwO8ff4JvowUGbzOFLm9+hoyvFSR4D142kM9XucwPlxjzD3SvYQ9+zNTPMwCUb6SIB89yIs/PtcgpTxajJM+ERVGPbwrOT50yjC9eIU2PRqArL3IErw9e1InPosNOj47cik+mr2lvUQ8rz3TbAA+njXlOv/ECL5aru8+ixpXvqT/DLz8Ez0+EozUvSno0j3m+Co+sD/lOwlzYL1jxRO+17FZvchHsb1D0J+9EpkLPpkx7z1aO6m9qq6dvWh/3T2xyZO8U16evclzGj3pto69S0goPdRCLz0w3cU8oGl8veAqGz4NO6u9QpMAPradDL1QGXk9S/t0PSqqTj6+Kg6+nmEyPsH5zbxTMYW9SfJPveQImr3LiQM9UmdmPU617T3Y5Ls8KmKuPckY5T33Fj+9+ZMSvVTD5L2+vfk7sX2EvQ5g2r2XuGK9JTPNPRzCmby8DpQ8FefBvYFbOD30vR6+eOI/PsPqhr0qXyE+JnE7Pr1i4T1zyLe9Ns4rve6nLL3y5JM99IIyPsXX2D1gmic9fyyWPEntZj23kti5ObfOvdEmGT37tE6+fEVNPYXb0L5Wjhq8pwLHvUXIor0WceG9I7hNPn3cUz2yUQI+H+KKPcvI8D3LJJi9Gk4BPoFnUL4ssxE+crgMvgwoHj2JvqU8t4sDPTkNEr4Y4vY9LFnMvZzX07v7q7U9UWqSvXZI/j33QKI9xZ5GPiZGBT4UPig+h0AGPuZjXLzpLve9TTPMvlTe2jxkED28aBnYPGLgV7txYWo9QqJfPAsuwD36euG94BW9vTP2pD2iaBk+4NEUvhfn/b5sgKc9Pku4vfsrwD1Fbhw85CH7Pfk02r3diky+gamuvQjQED2XENk9DUdBPX2+Iz7LEm47vdlVPeoaG73JgPQ8RKcevmITbz3whTA9Sk4PPRmUgr3AO+495WUFvqQrVj1kmhE96iSSvbtJy7xahRE+RHynPJ/5tr1AI1E8j9YTPHy11r3So7E8d8rxvSD5ezy/+ba9O6IGvfV90L0ofDE9ELSVPYojizzDVy2+08PlPbISpL3Sm7y8Xg+8PZ5ZsTtsktg8yCt2Pe4ReL0ldMK9ij0hPb6jHj74JD+8EcwuvnQHtbzhO5u9zazbvLO9dzuIIpg9BukfPvrxHb0zDdg9aX9/vauICj4FAuQ9VhtjvNtohD2+HwG9wOrwPZWRJr1pjA8+Qm4NvegiJbwJNR89W3RWvVQzgr0HugA9hbzsvcm99b1C+yu9tZ0GPS5ebL1nNRc+orRRPWywU7xxex071fmQPdsJBb26Gak9jZT8PfXo3L3gICu+eY+EPSeiRT3QDQy+5hR2Pc/3jr2ZnI69XCxGPXO7gr4qcVG9CmEtvEF5Fb4dWRI+i8mKPV/Ojb0DwR6+rb30uXBaQ70c6ZI9nIVLvmCoDz6sItg9rvstvStcLz22w8w9XdjVPEpJXj2HGTI+GiuKPRrQf7zxUQo8bIF6vfbOBj4u+n6+Gc9oPvq9vL2Af7o9rAk/PmTu1D1RJ0W+PEpdPROUdD42hfM98miKvdTodzyveJ697nyCPlmTVL04rZu8Q8VZPaNtWr1lsAc+/AqHPVHnhj3KF428YhvePdFlDTxP06U9XsG7Pclx0zzGfxO9uRn4PBDIg71BhuU8koPAvX83Qb2fBiQ+a84rvNlPyL16sgy9OFpVvWLVj7xfdVY+Hg9nPUmbSrxbyLW9MR6xvExEwz3dxBM+aHwDvo9Cb74ccrc87f4MvTNH1D3Fk5y9kF1DvjeH7b332Jg8ju2JvOv6FL4IcoW98flOvggx9L3S+P68M0myvS9C3zzoJwu+62ZxvaFnmb1bPCC+18msvYnizDysHtk8Tm1ivbYdST9QA6y+mWQjPgeWGb4d6aQ9EPvwPbPpAD2cRKi9pmSFPVrAgL3RH4Q7nj6cvToM+T3jf6E9WLsgvinxPb2NjcA9HWmDvXPcnbwFLBS9rQe8Pa+mzT3CyVo9euICvVSEQL300zQ9NIvsvM9Geb45pIq8iteEPUxMlzxW3xe+4BC0vnaIj73qot48GVFCPEd2sT0bTO+8y/vcPZLHTb4yZ3o9ZyUkvWZPLjv0azW+sJv3vPX1iT1z14o9O/epPOgvSb3MbYG97n5pvALdoLtXyCy+kBWvPYgmGb5qAPi9xsnePSKnwz0mFue9uW4XvlLEGb2iQH+9TBm/Pbomur3oKT++GWlQPRlOz735E4w8K7OsPbhy7L3grqg9VxffvAL+172NDOe8vWOUvT0Guj1bcKo9aViHvch5er5gBRS+0d12vKm3ir1dR4w9ztmhvYMDAT45cDU9teCiPR3vAT0I1aw97Dh/PEdyRD3qixW+eivKvRx/G700G509+MYLvoeNH74qpbu9hWT0vPwaJL1hUgs+qrdMu4Nmzz28Bio9PCB5PORJyD0tKde914hEPoF7abz1DhK+WtfpvSqvjD2TTDE9jhiFvfMEBb1/d3Q9vgNku+0EYz2Vwzi+kR5xvW8Mgr2eC6+9tsS9PQ04sTsjqQq+AAkoPgC2XT421lU9bmn+PP9uGL5cud+80WYavq2BpL3oZM09EEadPaG/Hr6vn9m90d6HvHIp4z320bc8X3h1vKyz8L32mPM8//jjPbUmGb1+1J09BcO/vRBUYj1FDaW9A+ACvve92r1Yl6k8Pu1bvSKun7p+Uz881585vpj6zD1E8CG9o8BUPbnAqL21aTk+TEItvSbQwbzL/Mw7KKyOPX9seb34ivw9s8ygvRjsGz0GXCE8cRmQvaU8Oj3GTwg+I3qJvrPJFT4fria+8DShOldwLD51MDk+imt5Pajg1LyU3Oi9zAKovkeh2LwMnVo9T6KMvcJRVz6xfpa9TGEcPhXyIbzeiBa9RjStvM4pVT7HsWU9x7cePQXIpjuMjnY9QKzpPaO8HT4WdJG8r6+JvQxzwb0b4g284QeMvYvwlb3d59o9C73QPaivtT1E8HI9EFm2vczXjr3HE3G7233JvYZeET23hY09MfnPvZT2y73f5Va9miyvvXXgL76HQfE9aSBZvhIT5720h5s9aYCwvOjhfb22ehW8CdmKvdsDnL1Ru2A7rXCyvCsR370GSng9PVOcPEuoy71SNRK+XM84PeyPv7wmgF6918PTuqPkmz3aEfO99JvfPKE/Cz5G6As++lvbvV9RoDxTa+89lQ66PcGeHD0NBPA9m6fWuxMKAT4UvsS94G64vd00F742pYy+aVtOvVFwOj6HqIM9c00tPu9zBT6B5es9IrYcvhJK0T3RUm88fioEPmlPwj1TPPq90IaxvRL2CD7rJcg8+FZaPPtL5L08Bg4+Z1idPdjeLT40kt29f4EKPkTDEr11Ioa9/CUEvoz6hT3gu8m9MNQOvRa5RD4Hp7o9mH00PD7rkr18Egq94syhvec5JL0R0oK9wmO4PXBEKz6u/K48gleSukb6ojy7vtC944Povgh97r2cbRG+EgcFPVO9Bj7zLCM+X7cxvhDmUT5n65O+/3nfPa37bL1kERM+iD/LPCIvkz4apWU8YMXHPUzjV77tlZK9CdFKPk4jQT4bcrE9aNYZvgYRUb4CH+A9j7TgPL8B1b2WDw4+d74JPq0FVz3Df1g9BQqIPc3LOT1oiMA9UOyivT1zBD2hdEo91xp2PXAnmz38ejM9qsi5Pa7TIz2Rzpk9/LdMvB7RQzx71WY9wGeWPajzpz16lU27UENXPc1FvD1H5NA9HrIdPhi2Qz28/yA+xXevO6++WD3a8k89790DvZXGoD1PeIo9tMKbPB1FJDtybEk9heCXPI7e873DS9E94X1TvkVziz2v4uE7khIcviAJkT13iZw9hn0IPbXpNLwDQM09slH+vG+r2bx9cmc8gUrVPSjHhz36uCK9ObqPvZQDBj2aTSo+mSoWPhKMtzyWOK48W3I+PeFveb2qKhw+/TkrPhPMqr0HL6890nV7PZHL4j3OHTM+86eSPbBH1D1Pgdy6yXEDPv6mAz4Imdo9+ZGUvNdrAr01nDE8VaAKPXVwxT26fMc9n7yvvahWyrxFPTE9x0cRPFz5rL0WS4a9vgmpvYWjWT2Xf4S8Yv4cPpK1Ij3G9K49Qy/1PUqAnj1IEa+9vpavvS0Ceb2t4M09MjQCvLmuALwDdIU8x7yQvnUEe70Nzlo8MPuavctw+DvhiJk94HGSPZnFLT0wZg+++lT1PBtCKz0SYZK9FovNvEW+4T28m1Y9ai56PbM8M719/Kg9XJcLPjK1xryzruC9squIvGQ6mj25Z9c8PIRcvXJgxjw8qa09RKmaPaJ07z1p+Jw9+eYFPfZLsTwgAJM9yhgAPoeg6z0pLki+jZHhvDWNRT03Bj2931ZpvKhUzL0tY7Y9QMbGvC3j8b2Qyq49vQMIvs9J7b1XEI49pEBCvf2lXL3y4JU9CGaTPYCZIj73fgq+ZqUzvCaCFD5J0WO9QRnmvCOK7TykqeG73GFfvdbNlzy/PJi93sOcPZvDrT2nEXS8BM+ZvTDvdr19daI9vXIPvSwrvj30Pva8NyMSPjaVPL2aSwq9JkUaPAOH/T3BaqY8g3odvjMEl70pzDu+Hl2uvOdljzyrJNw8wDWgPW3KsL2papa84ekEPNdlo73izfQ8gx2kvSk0/L3jaL898stYvSTxnj1BjRw9okwBPhJKqj0vs9M9eNMKPj70Mb2bUhc95HGGvCoKT73pmHC9mSsrPYiF3jxzFCi+v5lUPSm/1D0V4Is7uV0EvnKTMT6yAFC98OW9PYaeGT5Dsb89cs3tvGt0ij1JhCM9Y9EDPuTdLTz1B/y8AMxovfb2cD1NEui9CPGrvR01zj3hMuk8Qe/Ava51ibylieI8GLaivddjv72ofJE7ryeIPSALR72ux8u91KKOvTYQkj3Xtdi6DjbpPe4gLD4tspy90RsOPMEs7L2fieA9DiwyPo7ejTzYizU+Q/PyPfRXAL5s8G0+KuCIPHsWJL1F/Uo9PHAFvWUNHL0yshi9aB80PRWtaz3PTGS92tPePYp6cz0SBG09gNWevW53mD3OCcI91dN2POMXoD3z49W9YUdTvTINvDvt4CE9ofKAPYc6CL2wimM9oV6FvfhXT70TkAs9ZbHcPQWEWDwZiQU+vliZPVT11LxUOiM+iBCAvXpfST7oGBi6XwPMvTKAUb1H2Ho9BjyIuxVoQL2egra93LmmPUIw4T056fW9F4jDPdhIGT1VWgg9Oki4Pao1jb2/Zps9HqnwPL8Azz33jvY86BuEParphjv9t468lBp3PX907T1Dae89/ygbPUCpRT2ocVY8FrpGPiljqTyiNsk9rLckPdBJUL1etOM953tqPL1hF72cqmU8NhA/Pe0bz70q4Ww9v27ivA6Nhj26Bb49XET0PVu1fD4V1oO95KphPdsLV77ZdJa7j1vTvGw0TL7etKY9J7Aov9eyCz1W+R0766PHvTbj/T0hIp691v+zvGEDFT6n/fu+oklEPB9A9DttczU+uI5RvciCD73x+kA9LrtBPOX2Mb11dwe9z6g8vR+VHD4CYKK8VBFJPdp2gb0r5Lq96Ee0PYp4mL0WM089aq+gPRclkj1aSR0+EhKbvXq8TD20N7a9ocMHvryp3TxHdK69lLn+vUb37j3MphE+lXwnvbyGI73ozqg9IH+WvQlZbTwcrqs87uTZvCLgST2WRuy9Be/IPb2QyT12EAS+36gEvFpL17zJXl+99EsePENCmD3U23Y9K8x0vUBVXjxihK49k8PLPdQWyT2vG5A+GLGKvSuUKT6JheK9zY1nPfayTT6wUbK9W6NuPuYaMTz3F5A9Iq8ZPh+AfT2s+669/z+SvEZJxj2jGX69vE3zPOTH+r1oaIW9568NPmuG4z1vFEm9T5IFvYCChb2Unq69UF7JPHXE4T1l87I9b3v7PITzSr2z2aE9C+0PvN3QuT18IHa8nUOfvY/yijti/ag9k9FOvlYABr2hzwU+6Uxpuyhx7bzp4d29HcYZPYbsE72IScw9XYRpvR+dar21lgC8F4mxPbdCjr0lxAQ97e+tvVFoezuJwi497oYIvrUEqT2r9B8+EQWbvRPAy7y2mcq7sZcrvlPfG77ULG28Bs0wv8X2hr0CAOG+TzYrPjhLbj04QT8+SiDGvbzLnL3MbIe+gmOXvSb3eL47QxC+gKgcvUvlX735qZk8CearOQtBF70N10g9dW45vewxBz7b1Tw9bsUovDPs2T25EDw9MQqovEtcAD2A2Ew9raaxPf9pOz0MyMk8FdumPTWl271XKYy9mUikvSYApj3XEHi97cXaPeqnRjwyXN08wlsJu+AUXL0UR/m8G1kcPAePCT1+gE09XGOuPV49PL2Dw1G9vBAKPNVGkjrNcjy941Lkvd9hqj1tep884D7FvKvmqT1mt288vhODvTVST71AUWs9/YmLve5FBb2L2+q9ilEEvT4sxb2/i0S9v+GtPBaM3TwCmoC9xZb3vL7PhTyv0OS9SYoRvalWOz7dWOS9ePDsvRnDt73GY58+FSCYPc/eFzx3xug8bfOiPU1rTj1Lf9q9p+MDPidzMD55Hhe9linhPRWtAz6qPWU8PlqlPWE0ND247DG9n82XPoo4kj38y849u2HLvfcwLL1ibKE9t4tSulFLpT2bbAI+v8ftvZsn1T3g1xY+L9+pvAhkJD6TRza93E4FPUDUxj3lQgk+bRCvvdWiFbw91E+9LkzDPTrdmz3N4ps9WzWuPUr8Yj01N349pvY1vQWSez1tjXy8NYoIvTrN1DzPI6G+oXOMvffxAz6gcxU+8KtmvW6C7T1DmDK9wpKLPbMkBj3P40m9LB+TPSIu5T3Nm107RyEIPm8siD0TEMi9Q1wrviY/O76YfEy+4EiRvdwVujzFwKO+b66OPsyWX74LAwe+bTqfPhVNZr4j9iS+Nn2HPr+gy7zBFB++4KfLPR34PLwcnUK9mti4PGvIoT06g9u9HBHovHrk+jypYRe9vvCBPHnCqrz6efI9NMKwPZA+QL1qCEW8ZMh9PSYe7TyjFFi+DczRve82+7zhNug9xRKHvB3ZBL5Yxbk9Bk/zPLcaEL1b/Dg9iW26PfbiJL6Jia095ofZPZlc7r21ug88ymErve7hsL0q+em9UEWfPeUOub2t3YU9edMgPsaWKb5itde7HKd0Pu+yzT2w6FG+ykdfPiI2lr18J6Y8Tdi2Pczc3bx23aa9Nu/hvVgNab0WvcU91QmsPVVixz2bKpa9897GvcDVr7wUKjm+y1HmvbsZF72Go4o9uBd0vQGRxj0PvAM+Ox/Wu+8sHD5AwkO8x+Ljvakmhj2E8VO96WopPqbqTj1c9Rm+nQIHPq3HCzzPQf+9Y6RHPQFAsD3JC6A9OfaFvmvQ2z2SvQE+KReIvHPdljy34AU9LMKuvf5kLT4LfOg9nUa4O3JRpT3GbuU9r2KwvT/kDr2EngE+LKhrvG+/FL3kUT+8sUOWPZc/A71ou6a99y6GvZA3nD2h0QU9duAMPjkt6D3ooeC7zp8PvTRzjD1+AV09ekStvfnhxr0Orjw9cqc5PX/a8D2ezK29wu7cu4AyHD5Attk91c4pPUwqKL3Qmzw8QK2RvQvazDy9zGS9Il9gvfGowz2Lqm+9jdjhvbiNrj3MTmq8j+s6Pa7hgjw2CQG8IaokPSpAr733C+A8QFH5vOrLuTwzKMo7cc+AvTphWz4S4cS9SbfqvTYa6Dwpv6A7quJMPbx9/j3pNq09jtLkvDZxij3qDTm9kp8OvXkEz70VNWO8EPMavSeqvz3nBQy9dzSmvS1yPDtZFJu91bcUvgHuVzyY8Ku95Y61vTAhCb21jGY8PfPTuOXD5L3UIR8+LW7uPKjM6r2tKg8+N+pnPFQY7bxY8dK9LuKzPRSEkDsEgI49pjuMPRm/lz3NIJQ9Rl+DPv/w5L2QFPA5qC9YPUPcPz1qCVG+VslLPvHW8D02Fu+9E46QvWTLMD11qMI9uq0GPrHxYD1ed5Y8fx0FPpJ7wL1gX9A7b996vLzHB76+Y2w9wr1BPJ0mtr3piBm9NJwiPrDshLpyWVW8f0TQPbrA9z1I17O905LwvflB1rwgiAa92VUZPjBekz1XgSy++5PiPTdbBz711o+9HZuNPVXtxD19yoU9cnKjvZUIID5CnXo9vAHePDOriL2Qj4m+jGJIvj7Faz00Gf08XGYdPT0AaTzinjg+zmJMvYiajr471A8+oW3Jve9OTzxxJ948v5/ou3ZV2T29jMO89v9APvFRL751YAU++aRWPhW3470whRo+AKIvPIsUGL7HXF8+laGyPWtYpj08ypw7ANgYvg93fbj26ZS9aPt4vc64t75k9hM+ykBDPHueTT1ihnA+btcfvm/pwL0e/gY9y5amvWvliL3jary9fzscvQK7ibzz0MQ7L5CAPK1sTz10Dwy+QdWjPa+wJj0BA1+9w6uwPXqdqzwI8+m98Rf/PEIKRr0IcpM7syf7vD1BhT27CB2+xQ8FvvgrjD5eola8qwh6PewGRj6Le5S967axPfcnET1HVjE+Py1JvuJwAT4xMBM+xCI1vuPnc7xwuBM+9efvPa2d9D2nGBw+x/iMvfyl8T1V106+FR5MPg8gTT5R9sO9c93DPe4pWz0jKje9GesSPtf0Qz205ti9nsAQv6j37L5wwCO/e1XCPY3ohL0d5sc+nA8xP2QM4r4A1LW9IlcNPy6F9b0WUhW/rXYiP+dxkzwbT/K+CG2avYfHAD52uyY96jN8Pf59hLw4IsG97b4yPnJTXr1DX1A991m/Pa53Xb3Y8ek9dcuyPQhNaL0xOjC9aajuPSw8tj2TWYc9WwK2PJjGMb6WK4Q9qsqYPQ4SgL7JIia+HmMVvpbdYb2NGgY+BWFkvB7K8r0GYqC7bvrlu1aRSL5SzRu91u5avD3GZr2bLbw9PyQSPqbtTz1Jrok9we1zvXMfMr0rgWu9iYS4vZWY3T2nrJC9CCjNvfUNNj3b/Rs+vbuUPW1lkj3QrhQ+JDaBvRKN2D12M8O9ZBQCvVtTHb2CA069NIiPPc0W6zzwhmY95H0IPlyq3z3qwJ47tba4Pfz4Fj3Ah+O8ZQfUPdQ+cD1IH9M9Xv3uvDGkwbw3xAs9wSsPPvRqAT79Vbc6RlWIvH/hGD515Fk87aRdOz5cSz2Jo6Y9nvAAvvyKuDyYXAO97BgePfvEXb16nDu8q46vPVeGpbq2gSc9cEl8PSaH5DzyMJG8NUM8Ppwjlb3QdHU9d1CIvTMNRT4pzoo9SQIlPbSqgT08NtC937l4veiY/b0b3FW8GQk3PZ3a/Lt6uCY+1n5ePs5LITzCHmW92TvyPJox2bxn7h29l8ywvQEAIT2imeQ9D0OLPUnCBr1wei48wO7rPNCc5j2oUNG9K1KuPVDW9LwiPy49csnSvbpdfrxnhHg99UeJvXXC2j0SBIk98Oh0PRlIHT3566G90zDpPTMJFT2zJno9cLUEPNjdHz0XHcq9a3EsPdc1SLyBm2c9giE/PeCs8D02d3g9KxW+O4cfdDzTgJI9mLx9PXmMOr0eAMO9GIZsPf+E67yJI/g8g8C/OzQOSToRyY69te+mPcFso72fA2a9hGPjPApq+z02hnC+6xK9PPwcKr6F1QO+wXUqPuc5xLz5XEU9WwlQvfT/Lj7+PZ49E2icPeG6KD6qRaS9YBfdPUlx3LvaNWg9oISMPeyvyDxLxR4+34N6vW+Rl71hIrw7+j/aPX58KT42sYq9W6otvSKFBDlh2kQ9x0sAvHzWlD1bUzc+AzE3vfBHMr4Bg3C8hWvWvQI/CD0zIgg+g8f1vQhjdb2xDyC+mI1gPYO2Dz04orE8rUqJPSZoJT1XWRQ+zQKzvU1unDwWdZW9Vf2+vZHFdzsD97s9DDarvGWm07wqgIE9h75KOtX8jjzGZP49XEb3vHBRz71yd8C9H8IeuksFRD38psK9YN0wvba6TbwAKva9jgclPvFmLb4Mqn88AvkUvG4KBb46Fiy9roK9uw8eg76zIfO8eP6NvUDQ4D27J1K9NFg1PXQUtTqcp7m9zKkHvWK2hr0snhc9h3h+vSzoTD2V6Zk8518nPQueUL2qXVa9IuvjPUW7qLzjRwm9aUlqvbvRqb2Ox3c9jeZPPR1a9TxQEa49rKLNvZKrxL1YkyA8P2rnPZod070O77s7LfsXPgAmizwx37I9RJ4WO+d+Az5junm68OhOPWOcWbxviAa+UeWwverU0D3v8yI9yer7PcsIj73TuIG9MF9yvUrjjD0Ennk9/TYGPUUWlLwM0b08xNRHPOTHr7y/Hvy9FrXGvSvA573jSq49qLwlPYmwiz1gOqw8wynwPVlMsT38I1A9N2PEPW2dqL0jCvY9HCKhPWQGQTzwh8K9d7O3PSihFzyBe7I859CxvXdHGD6xlUO9F2jhPZNQoL2Y74O969s3vSnGvr3cF4s9gr+PPfy95zxnr5A9Vm8DPjaK27xx5L+91W+OvMZDXT3vhYK9TPSUPYBX4D1hlca926ZQPTj3hj0vnrc9gRGQPdLiDr3nuBQ+fYSyPSyLBbzyHAe9uDmZvcu8lT3ogI29NhDRPUBmtDxSmb298cSAPcCsfL3N8bo9yx2Uu4kKhL3HbN48OeSevZYGHL2+LAk9xqclPZZqqjqKuXc9fQy6OqoCE70aOdG9vWdGvfypy73G0zW7jjpxvThvEL2KDcY8njjrOjBhGTqcZhI+p2PGPS+cST33mbW9sZLgvG/0pT1BebK98eXUPRYmpT1UY9M9d3idPcuDpDsTsDI9jp1kPB60hr0ul6y8QEslPadIyry67sS9vHcgvtSiHT0ElkA9j2QbPU2BPT2O+yW96X6LPNFj8j2kGPi9XYCLvdVMhztssEE+QyrDPbD4Hj00NjU+cuDEvOP6eT6WDu29G7MAPaj8Mj1VPWy9l9aDPmnWNj7YjVS8Lh62PmDvIruHr109Km+6PXbHoD2dTr+9gN0ePoej7b3WYCM+fuqGPYQMZLwA3ps9FLClPcnetz3EUTq8xkB6PbD1iT1cHqQ9FotcvQuvn70amAs+MpDjPRlg8b2FDHG9KcpTvjDfP77bXrY9k9+1vUYzJTwl+Z+9Q23QPNnsnb2HyY29EcwkPRsGYbw4WE2+s5tQPRJPVb2BH5q+kJVMPC2b4r07pM270MhHPewj4r0P78W8reNnviBFHr6xePc7NqPZvR+ymDwj5h89xURfPqc0vjyvSq48G7BxPgRz4z14gb8+iGa2vQ5N5T1Idro+JqsWvbrQwT6JPWE+JKlqvKVu9j4/5Ck+dkSwvIcHobzIJzY8lku2u+HsCz07LAy9wY/8PfSK8D0B8da9pYY1PsYWc71mzNc9iyOsPT0TDrsB7rs9yBQfPTay/L1B/kI9WncePuR1kD2dihs+xlqyvbovuj7kaLK8lrHnPFeSuD5ifYE8dx03Prl2ub1dGrW9iBy9PoqiCz5ruo08wB2lO2rYZr36Xa49FLDNvF/Xtr1ac1W97iMivFinOL2XTgk9bWDiPduv9z36mVu8gcz+PWbXw71r5YC9le0fPFswvD2JaIs89sqUPMptdbzlgzI9n0PXPT6X2b1mQeO9eHUxPoCaHD4JzhO+CKtzvROYfjwZ9yA+2G3nvB0tCbyje9e9aZcrPGx2xz1XLhI8zHlqPMKi7D1dhsi9OBsMPm72nj3M7bC9AAtOu6PCtz2qRYI9d4oIPkEZ1Lxgy/K7f18dPXHWkL0nfj47EgwEveWJ0b0k/JO8RyeyvXEgyT1d4u29peYaPlL6nT2Aqx87zi57vfOvwzx41BA9GTnXvT3/EDwnJVc9W/qIvdvS9L0jyWS9g69MPUBkwb1rXv68TVS6PBq8m70biBE93NVCPAUh77sg4ek8ZUnMPXgEdjuUHuA8heFtPGj5V7s19jg9s15LvcDA6ry4WAU+nKQHvUEfvzzYBbE98ywVvpfRxjywXv681QtRvbid5z2siRO9QP4zvWh1Pz0VvQo+8jQGPiKVWzz2Trk94qFJvmPgvT1xUAY+ewAZvtivorxtQCQ+sE3HvQfsbzrkDyg+oVTyuoyPs7tZPh4+nslTPUHWlD3v0bQ9YVmLPTkynrybpRS9nUnpvM7vDD3NSu890dY1PpdTQbwhKnY+sJYbPGWY+b2VdpI8YEgRPuc/lz2JMrm9qR2ovF5EgLumSOU9GuezvTAu872Gnc898FgJuz71RT2cBNE9vXarPTspVz3Yt4G91s4lvrcYPz7K4ZU9J8/jPYYrXr0MBQM+meaTPZ+/Lj6k7iQ+r+QTvpwSGz4nge09Y2qEvQj+AT35Jgy8OmmbvYMyxr05SX69IADgPaLZ6r3VtaI9VT38vQWrAj6MPMq8i4UIvnEVGD6X+4y9O+KVvRXk5ryRhOC9m5UdvUx01b1Soo667nxIPUyR8b0BT2K9rCKSvW4RF70XfIg91ndmvTp8A73t6RY+s/5nvbRJFT2v3989fcS1vaQTCb5TRoc9PavwvCQqTD3mpe09GRUsPvR3sbxPT209sCuFPZHHl7xALo4+krH5PGZXXz2d0Ac+a5nPPfafi73weow9kcOqOlNUJL0TFN89e7uzPYR3hT1e63W9KKwePg5G272HBxY+oYqtPCRX673FzBA+/7xIPMBPMT0RlZc9BM2rvD40HbwTfSW9yAd6Ot9taT13CtQ9NqXKvGOAgr3fHE49llvYvEiGlzy2uPu9/2iUPUexqDxSj+a9AJqkPJikcj2h0p09735hPMy8ij0jE329Kx27vR89Lz0Co4O9DnnQPER2Cj4bz8w91saJPKtZkT3tg2u96S2LPNl7DjzUTko9zVGQvd0OXb6tj0y97F7QvIex5D2XMfo8ek3EPS/pT7y/aMI9PAwQPiaYZD3sdvO8PYSNvQQ6yj3/4sM9DoTZPTX+sryRLpi9r1tBvbgLGL2vcpC99mnPvfEn3L1a9To9LGRWu2wvcr2vbwM95ycLvr9kBz0PmdA8q6c9PHCGir3cpzw851SNPXS5PD2fSn+9f6kwvMi5i73M9Ia9+6MhOgJChL3Y6H68U8QrPZ7mij13sNu7Rb0oPkp+8r0roQO+Nu0Uvbwn7b0mxwO8YZhUPUFtOL0h7VS8BuNXPS6L3Dzx9MY9v0KXPS2T0T3FO+67lPnZvEx4m70kYvo9fwu/PQiLlTzmIxo9JZgxvb0ckj0Q6I29PWDVvQ6ViT0CUNM9OmZLvHLqAT4GTZc90zYxvR9VbT1ezp496huHPOqz4rxqKP+9PxcPvfOpZj2T4pS9zKgvPgddEryfl+09tX0OPrmzED1Dmyw+pfi0PbB0WD0Qxn28bj2uPeDXnD1PmhM91QepvfwvHD3O0PK9rRgGvigtQ719WM+9Rq/hvdC+QD6ve4q9x+iYvLQXRjwV7Yy9X5a0vQ7YQD6g6Qs9mgMBvjMgIL0Givw9TCBFvCoFaj2yr189fxCAPSyQDD6lAtk80LZEPZ7Xwj0ZOrQ81RIBvJgihL2xDDi9kD84PsRzBj7D6HK92NqYPXe2mT3OB5I92/kyPbHbN7z9jJk96ugOPk4FGT3UAEA9Xj0gPmziQb4omrA9NHP5u9t0XT55aoE9s1axvb+x/70dneS9W/LcvSnhLz4yH9u9RwmOvWshQj5FG9C9q91kPQ8XAD4wh8S9RmDyvRJe9z13dQM+2yn0ve350j2Mv7G8bVerPM/DFr5Euk49O3/UvUB6gTwvBfM9uOdEvY8olb0+kxE+3QAXvZviBb7zI7g9UfoHPYvkUrx9OsQ9JQ0zvZy/0r39YwC9yZ1oPRcllr3RmUC9iHBVPkc4gTzaHLq9CGFjPiX04z144Bi+eDJzPu4NQLyGceW9miqguyz/DT6Q89M8xgb4PMFy+T1tccG9FkGMvW/no73QQvC8zbfyvXr5ib25qZU9FXu7veWkqDxQYT289v6PPR+95r1+HJO9bZUoPd2CqD2pGjE9PtGYPFKuL73yT+e9YUIIPksAJL4JBFY8fDaYvfWEIT5Wrdg9ZFmCvmd4+TxN4EM92lkOPoGQHT4s6YY9vv2evaTJ6L1RG/49ie5ovF6aa70BHeu9OL+Gvafit73M0VK9uYLfvezsLL1hppk9R43OvBQZFz70XbE9tE6JvTwGDL87v4u9ZXu6PcP2hrvfAXe9Q6bovYW/CryWTUQ+0qzjPFF2Bj4mOA0+rfUQvdK1v72rwiY9DB1ePbTC5j37q0g9RTMAvvKeLz2rhbA9oOD8PVWJBj2xTm+9V0W5Pfdui7pR6gM+sP7Mu4blRjzacza9HLmtPZVQ1D5r+AU+zs40P4NWwL3s9I4+jtiavqy54rxu4Au/aK7cvWc2hT4gA2U+mNl0vUcW2z7AlQQ+paiwvd8PWL4b8+09tqYjPvFMAj6c1wO+5c64PLGL8bwFBt08NwgwPigyCD1jxvo8SCDSvMZvpL2rBwU+G6wovFern7wM99m9n9PwvJgU+z2pH6C88z7FPfC+LLurZZs9urdbvXcYEzwf9gq9OH28PZ3VrjxvBj28z5XpvZmoGr0/9NG9gBxwvTrBM7y9yeq8cs9hvWFPAb5T2t+9JT/XPInHaj2840K9DQffvMJjtL1b6x692TUzPbfBpr02aOE93yYYPXLMVD0vtFw9LD3OvMe76DzBLeC93pyWPerFEj54d5a9sm/0PVkD4j23CH49dKcXvX7CbT1F/9c92kjwvCGdpz1j0oA9BCJvvTn1N73lP+Q9+q2mvOZpBL0CQUi9qzJ0PbS4STxtsVS9rC66PQMvAD67ZIM8/Q+TPTpdsD1wqgG+sv00PdlqGD6knDY9hSuXPW3CCj06XyE9+y/jvVvqqDs0HMu82qs6vudQ0j3M8YC8PQa6vc9r+j1PAjo9F/8ZvX/x9z2z0Ou89s3XPTYdaz49WUA905Q+PiKD9L0bZQw9yPRIPN2GDb0hhy4+yDq7PITDir1RG+o9ZtsjPl7mDr0soie+2ekNPawlDD5eFR09ey+SPY+o9T1/FA88pHEKPqis1j05f3u9y5GlvMLi5T0JHdS9jQwaPjXQx7yzoR+7xHI2PibqZz40ts8+L3epPQANzTz27PO72Qyjvkd91T7BVbo9h4SbvhNDkD21fFc+txF8viYVGL3nxNU+PFCwPQ9Q577oj669yGINvvei1b0a1Yc9IMhAvqkIiD0ou1y+9DM1vqbt5T0CbQG+YtNEvnp9bTzDNBA9GtFMvlyAy72d6vS+0FVavp+NY75lT3a+993kvYUuCL4Y6QI+KyWhvqmGUjzAzYM+TTDkvHXjBb7WkWo+ZboJvZ0Fgr7GM8G88ydEvVDm6T3MOY29Y5kDPnBThTxZQ1I+IGyKPf6HoLwEtEM+Eev1vSBRKj0QHq476pbRvYZcNz5aAAy9x1EPvdoRBD4xo0k+wrkYPowBDj5c3KU942USPtgpBL5j1bI9havLvZhGsLz+zgy9mD9JPqIEez2Nwjs+QR9aPevOOT3ICxI+3UY0Pb38Nj49fUA9Llz4vcKBCj5EZm2+03qJPUMGuD3+ryq7JPI2Pk+7MD6cjVy9txVJPhLwwztyeWg9Jsr+vvhPvz0HKx09qCqQu1O+gD2D0iy9oWeovTwnej0GJNq8Ik6uPbdNEz4PBQA+RR5gvWnziT3tV7E90SmPPExsCz7yloM+u//xPQUZFD0C6J89lQ7jPZFkAb4BjCM+4UJkPuutDb4F2xI+m7D8PQ2qXb6DgAI+jplwPndzpz3f8c+9buznO8DGVL6SrEU9GNuevQjGXDzs7U0+OGEbvb6uML0VdVg+3OrEvcrwBL5mQ6Y9k7SUvSPuab0qDSW9tNxMPgpkHj6XV0Y8t3W2PYpbvD2D+3U9t1rvPCKNcL3sDEk9JhPdOuifnj1cnBk9zjdlPGX5yD1It849X81CvdpovL0AOXq9oS9fPZ+reb3Nboo9oEEWvb3+z71KAAM+B36xvTWm0L04DOE817CuvTpX471/tjS9Q0JUvefq9r0JL+g8Zk+5vWVjDr554DS+2s1KvUAHobyDrfo97ok9PLS1S700qH09IV9Bvp4cpL3W7vA9yfozPbPaJL4LPbY8IdUVviN94z0LLtE97wYYPtv4dDyp3v89Bse6PJyLaL1RxoA9HdjcvT4PwD2zGHS8fHfTvZG3qbxPp4C93SUDvlFziT04h5I9yl8KPtzFUj6MNwe94wUrPjdyUr5FDc48sS25PRopoL2hBls+G9U6PoZSSL1DFUM+1mFCPqctEr0q7vA9Bs6QPG6z0j1cywM9+xs9PD/dOT56aPS9RSHDPatC4D0iSG29V+UpPqjKCD1TwIO94Js/PRIfwT2Eelw9KPrfvbfbn77uVKK+feWGPvPGT7tcO5I+T48IP3lZMb7o5oi9MfFkPp6Jvj2wF8a+iD95PqYeLj9RX2i+JFoSPZHAhj5EujK9YO9pO0lejDxLmqW9js4YPedqgL2zQnY8H1vzPB40tTs95xY+5iyJvc5Ijr2jWIg70MynPcD+9L2tsCs+h+bhvOVC7T3cl4o+A7XZvdJ1IT7DIBy91K1ovIo1JD7iP2G98M/GPVqk8z1BD7A96JuGPiFK/TxfIiQ8Wr0kPtIHMT4VufQ9M2iRPQSLnTy0WOQ9+hyGvlRzcD4aczg+PV9evuI5Lz7MID0+0EkKvpvraD5KASg+NU36vaBtID6uRzo+73U2PsLwMb2YGq88mItxvSACpb11c+09IFekvfK8b71dxn69pAOWPfbXbb4hbHK+YLTRPUXEqz09hFk+kgbsPO0kLj1TKTo+VxO/vTpWCj5AI6K8hNv4PcoiRD6fcES+a8YvPv41Bz7yYOK9OVKgPcNnHD6QR7u9JYAYP13Pzz4h8bo+rIQmPoprxr2NGDU/RdIOv7YY8z4/D4Q+uRqCvkhOaz5A8ks+iKnJvk/F1z6Qyc0+oeWsvE1Jwj3DsIu+P7AFvqYDRL3MPV29tpPzvUa5pjyPuwy+SY3qvR++s7yNw+S9imIGvipk0j2sLyG9wJc/vi3Gt7uaP0Q9zCjqPWtVgj7RtwA+9NNGu1K9PT5tpPa+9/kOPlk+wrwKPQK+jpUFvh92DT4ikQG9LUfNPg7MSD1uokw996JKvg8zNr2sAO47dPzqPXUuxb2rKxU+A0Qmvj74Lz5TR7k9kOGtvX+NBr0NlDc995fivdoYw7w9LgM+QSiEuxqBDb55BQK+a+rDvYkQkbzeSL09oMPwPLITNj7PjOe9HlG8vTOr9j2aTcK9U6y+vUomLT4PfqS9wGRrvYwfEzyO4cg9gr0PPiSgHz6Kz5g9f61jPZYSxjxBsC6+eWM+PQh/Sz6Mq469sA62Pb01xD10jSm+AhMdPicOAD6549a93TmLPv/bCT7xivw9JZsePtTchz1lJ9E9H4oqvkGJsz1XM989tvYxvcKmDj4rt6w9s6TFvRoUmD1FeSU+Wt3/vFPwhD0yS/091/K8PfnK/70UYM69yK6lPb0Fh724yum9SNq5vU6CdTw9gpu9MoEAvSMcyDyTO1m9Qv8/vHWhszz05dI7LdRHPfOvvDyIt4O9dvbRPHNP1j1Nty6+RHo+PKNjtD3hMxw91THhPGJ+5Lxu8hu96zvLvMORg7yXBq09TCjTu63s9byvm5g9JZwRPlde4b2QDOI9BkjBu5/tAT1EPI496Jy4PVqRabuDZV+8g0EWvSC2Mj2oYAq8Ytz/vAxViL7tAaU9EPIzPaWjVD0cfX89mZ90vSy5CLz3ZNW9qjMmPK6A4j1AFr494k5OvRKulL3TNEy9bZzpPFcBl71mDN69bWPpvZugz73l0lo9YP1QvGnIor3Ne9m7nRytvCgHyr140ak9BdGSPXtXsb2jy7E92iubvmeQUL0J9b09KPlhvtJVJjxWMia9dd8pva3A0L382pO8YwUGPliHTr08amO8mtUCPiJV1jxj3Qi+1EAZPvZTnL3zUDu78WM6vGZu5b0fIq09E8eevYu4Mz676BI99EqWPceYpj3u2yU88A1nPkI/6rzxj3k8sRV8vdp1xz2dSRU7etdAvGpZgL2xkra7kLlau7pb+7yOlqM8Ux3JPTN0nz03gY87Lz0YPsl6xD0ULvo7RelYPLtq2j1epV09fkDuPbeTAj6pBFi9j1Y4vaL3yj2prp09nI/8PKJbZ7wMgpM9im4Gvkw+8T2PPji+9IqsPEeDjD3+0ZY9mDXcPIYYv72pzcw8bttxPUr/kjziX149kgZhPWZOW73bw6Y9I/JrPIT5fzwyG1y97/ygPUdTAb5UOSE80BNsvLQnkD1TcZ49WR7ZvBhYDzzvJPS88rRGPfqrgjt4Cx89CrutvTgdnL21O9Q9hhHuvXvF4DxLjaM8Jk0HvUDvhL5v3nm91tYYvChlWrtL65q7PX1HPT5liLx8Raw9ZxeyvU46qL26Fri9qv1nPIHX3j1fi0Q9NRXhPQSUFr69jPK9I5xHve4Cwby3BbG9DmD5vOL5oj2Mwka9oyELPiHhPLtgJ6m8+vOVvbCz2b1HLD89Lk0GPjssCLwjFrA9H9nePf2Goj1275M9Vs6yPedC8r2D7WE9POFxvUmcZjyceoI9NRi8vWEAbb17okS91CnovSNEpbyqVSU+jhsSvNN4xzvGeyw+Om3hPA7pfDxCKdi9S/IoPMD7q71hHeG7x1UqPaLczz0E5Cw9Cz6cvAlTu71PobA9uUJeu7z3jT2bqss9GWhvvcDGqb279WY9FDz1vaSwO764szG9y2b/PCZ1hrwM5Om9AJ6AvRIJiz2Njl29QaKAPbbPET5O29+9yKQPPeeJlj3Qvdm9nNLduykM7DuzfjS7dU/NvC6Yqz19qqM84yytvWNerz1oRhw89jZlPU5+CT72qa+955CxPTudwLxa0YA7T1drPTgVWb2TvPK8030MvjAZ2zye5hc8lZHyPQnyPT0tpfw9fvjTPMuqV73HOwG+RuWbvaypPz7eLjE8KWhHPTbnBzy+9Z49OMyiveH2/j0ZuRc+C6LPO7qDpbzTe029kcsRPt48X74pVA4+QlfFvdIjPb2RckU9ocAcPEO8X70Ttfo8JQuHPU/k9L3Zrm+93EznveY92b1vsto9DA4DPHuYFL1+4iM+IYZwvZC6kb1HWA4+qQMJPoeeJr5Mjcw9lNeBPqtO7b38N7i9Zm6jvDw3zTzFGL88jXaQPAHj+L2sF9e7CWb8PfNN0DxDEzS9MWfePWrt5z3iiDK84+KiPaA+gL3LzEE9j9CNO7NsXrw6ugO+aIO2O0dZqT0CY/E8gr6tvp4i7TuYyJa9KzQyvkcdjj6WJ3w9nKoRvhcIlz4mfi6+TIg2vmMCGroFomi+/cEzvh0Q1b19nGC+bRBAvUshAr4Zbys+3GpXPUYDZr6bKkw+uvpZvvOR2ru5Zl8+fL5Qvg3Rqb2oxkm9I7yhPQd1BT4OWLg9BsONPgPjrz3/pYA9+WpGvDNfAz5cUiA+0BmUvfXKrjwXwWk+PM3kvWvK3D2TuaA9RJVhvZ0xij2XlM85orgrPbv0Bby1UQm+GTLJvZPbdj3D4KK9On5uPF6VhLwzfy49lWr/PY6nlj2G7hU+BNgbvXcQYL1HzQY/WRarPaNzDb5tyqU+QwsPvjMouz4Qk629px6/vHBLrTxOCYA9ahjcPjH8O767pkU+E/ZdPl14xbsXYYG7JRjAvYCjabzDgJI9ZVH/vDz9uLwkTd69vrcFPtG3BL50T4095usnvVoOAr2074m8zzLeu0j5xr21sVM9XDoCvs1iuL4ZT9O7xCfJPD/iPb8Iz4K97BT4vq3lkb39VXs+leIMvXL7Gr0awlK+YipmPZowA77SjV2+ijFcPrUp/bx+o1e9Snz+vLheP72ksHi9laGpPKnF0L2BZmo+J4IZPbRWOL1s2kU+WEQtPbQoGL7BuT4+UusXPSySH740hvO9NA06vGcZCTyI1wU+1Rk5PZJdg72uG50913ArvbdcET5LpJy9167jPRXRvr2xkIk9+J/nPf22yb1riI69gQppvTKvOjxK7cs7VaI3Pep3g7x7r2Y9mGsYPrn1gL440FA+9srVPQRslb1e4/I9DyUTPs0ypb1W2Ic88oVmPhJnEr1Zxba8cwmzPcC2CT59/+S8NDqoPN4F6z3nAJc9YZ/+PQOvlb368Z89RuiwPfDZLT3Nx6y9tRIaPae8jDxVg8c9zgLGPuMd/D114cQ9XCs6vR0qj710CwM+Spe0Oukg6T0Mjwi9lw3UvTFWAD5t7UU9nGF2PeavVz1+6wY+YKsRvQKUUT7wJXW9Gd7uPNS4zr1WJ609InEdvWU+SDzsboy9tadYvv2V+z1H5hY9j0cTPWg+MT6Mynw8SDdivV+rpT3FV4A9lelZPTpQdr2X8IA9Z7RWPdsioL26noG9oqgBPbmibr21b4G9GxHQvVRoTT2tkgE9/cklvLzOrj1Rybu8MNyBPZ9MKL3NhBk+/wkLvcAhGL1ba+898jK/vOEyIz5gb0M9TSlhvAolHj7fVOM9EMPeO/FI5D3KlzY9nIeMvY4G4T3IOOo82OVFPqROnT18N2U9sLkCPrP38Lyf+U89KVWqPVvFM74Wdvw9HPezPZm4lryFCnE+6n+LPWgGrj38i6Y9rDOkvRgSkT203Qu+muWsvdp0gryRVw+9KBwBPZ6kEr034qO8jFlgPeSBnT3qbJm9AHUVvmuBdD0Snku90GD3PRk6QTxsa+G8cKC2PWln9jxm/mi8ORBMvfUHgr3NNzq8py9bvdmNvj31CFS9p5AHPcLGQj0N7JY8oN0zvdPwR7yzr4m9pKd0vdf54L3mWMy9V5uMPQLAW7ocsuo84YsSvoMIkj1oidk8/jWWPU1YcD0zwKu9e8cAvuRo971gMiu9sutwvXNJkL381oo86hP/vWY6IT5/cJg9hMj+PaFt1D1eiC28kPo2va8svj2u4vK9X1hMPON1SD0VSsw9GOUNvC1nPT0aihU8oqsGPUaXfb0xLh8+X1sDvcpklbtwTey867vWvcIy1Dx6NwI+Yi/VvbANOLz5WSs+Q3H3vKEgTD4MF6W90ZOovWBJaL0j0TQ9tFI5PD9KtT21cDY97O55PY3Tf7x81AG+ifTUvaIwkj2oHCS+0AsUvuuemj3DWVS8DNX+PXxQnD1MIbi9dKELPTdgUL0bFN09PSX2PFNblzzobgg9qig8vTQwrz0n0cI97mgtPWs9DT4ARv29Dr2GvU+blL220i097ToCPrRDBL5vw5k8IemGvXGsMjw36ZQ9L18huxumfr0X1AM+7aYHPlJUBr2VUWC99B2evRo9U76TZt+97e54veLUq73X/I69xvB0PSGcwT2QG/G92i4FvpkBvzyC4my97rkrPdpnoT3s9eu9hki8PVXi173vdAq8ikKxPZmNU73YB+s9XVSrvSahv7zxggE9n6UDPm2fhjycMjK8rRmbvdlmhb23D/q9pbAePVFS17xFKuG9f+/QPfY5+z0JrnW9JxQ0PILdHb0gw5w9tGvkPP9P7rxps9O810qZvTozrzzXKLU9LaEGvT/IODxFhng9e/uOPEfMEb4Bmco9sttUvZxadT21Wnk9BR4ePIyJJz6uaPU8G0rdPFgh4jvguow9/t/PPVzYszwTkC0+tb2IPW9YH71EjwG8fNRePdYnBD6hmsy9v+jxPKAWbD0ULdc90lHUPULPxz1Ndpw88uXKPesqvjs9ITY9B49nvLZhG71vTZe9zP6yvfrqPTwjkZe92CUlvu9G3b0EyQW+SJncvWgMjj0F6gO+ppV2PD5vX77dt949LVqxPcrWED2x/No8fNsxPbtIhLuarzw+wCwhuQy7h74Rma68bRy8vS+Ig71AzsQ9UiHousZRcjyjFZw9O518PrfZJ75urBa+EkI/PmGk7r2XFwq934HDvQa0jb2BDMA9ahS8OxoSLj2Nhh4+67F6PMFMWTxfYLs9tm0fPsHiCr3uP7E8xgqEvbQrw710IkE9ZaDOPE9cYr1rGzU9aRZiPHavZjwiOyC9K6sxvG6oRLuOVig+n/LVPe880TxiFaA849EePV/IAr1rp5a8wiApPa+vlT1DxYS9YmZGO12yvr1lwKe9WpOWvf3vqb3FBK88aSpUvs73jb3yIgi+cCjkPSJfVz20Yiy+X8BPvZ+HQz3fP3q+VEuZPYmjCD6IIaG+4MrIPQybH76gePg8XoZ5vAOho76+NIc8WvSnvoKeBj51RIY9G3tNvlad3TxVQkE94q2Bvrsupz3PqBY9C8jGPa5Tyb3KWaW8dsCYPaFGYT1lEX+9+lGGPZEf870u4Oc8Fb0HPS8DTr13qI29usSJvdOmpLwtdEW+yPwnvgHRXD4eGAW9ohlZvdoc97qOSQi+jsGDPqPG/D25kBo+RJ+IvXQQDz5F4Vw+kkIsvcuVnzyu2bs94zG8PU8azD2594W9X+IyvZBvVL1WInM92HnRPYn7Mz3KfMA9v6WDPWNqqz06S9o8MoP1vKnBeT0A0LA9AE6GPmADKb4wpTS9l1XMPvUibj2Zfog+jEShPQxENrx96Ts+fK3cvMc+Sj4+kcm92MPPvWH5mz6he829/BqOPQH7wr0wSS0+Hxk1PHOOIz5d9d69JecEPmmw8DutwIM92xozPtOCYL2XlZg9DR5SPoynmzoiL9c9cUD1vE1r673Lti6+XRrBvL2VMr2ZQ/48uIWIvc1wubxb+Nc9TxIkPQd3CL0/Vau9UzwPvsNrLz3TymA96JrIvVsdIT5s9yK8MQfvPe9OjDwvP5+8Iuo2vjYsr71KnNa9awD+PQ1GTL1vUbK8MLQLPhJ9l73F9wI++G4UvXyFP70fDPw9HQ3FvGcdiz3kc6C9JpMIvXG/7juV4Li7QTRAvqqnrDy8rxi9iTPlukiDOL3R7bS92yXJvcpDUD3CchG+l4YKPhfqvL3kwlS8szwLPQG7Ej7q3Zs8lne+vWd40j3AGDg94c1yvVfxwT30dlG9acPSPPBQID7XxIy9+NrkPeqeAT0Hu0u96bUFPgCYFj5YoPg9pSY/PoNser0QYVK9wWKfvcoqv7yiMTo9tVbtvDhmET4o70g9okwBPp3n4j0e54m9JnezvRvHaL1obyk+rRxXPIPTWbz+Mas9k0GgvHqHL70LQSI+sM7qPbuygD2Ebsg7eUUIPnS8qT0tktC8RkIPPnMqgD2YWD29HP8aPhMxKD0e0cM90B5wPTPu3z36VOm8pVRRPWkvUj1jcwk9LhkrPoODg7uwZ1y92LnbPUZPL7yNgSu8kxMMvJ9iOL3mbNS9HAiFukFnrLypkbU7VwK8PVwAbr2+sC2+IeQYPvWLo73D9ii+36arPZPEMj1A3t489oi1Pfu+772m7kC7+pjlvWoHpbybDNm9uKiZvRj59Trv6Rm9K3Z6vfx9ZL3uQSI9QC9aO7yi2jv299E9H8/PPa5URz2R224+qCIUPhV5PT4MaZI9prc9PalOiD6KBLG9z7zPOx/LVT6Wc2K9Uh+MPjmqij04/I89GCCQPvUvKj7maAK9g9I+u+xct73Zlre8u8ltPRFlgT2cVKo9EiADPpbdIrwEQq69xaWPvL2VD77egSy8lNbWPAO7dz2YvkW978JevOR0Pjzqhgc+c5MOvjZN2z2PPJ28QnQwvYYoIr3U57S9om1wu9150T1TdkO9ww0pvQqetD1Vgxm9HTt6vUtmfr2a33M920oDO8oeD73CLAc+jwuqvCmbCz5zNP+90Ok1vDmXAj6Gdoi6G5QgPb3fVT3rWgq+OrLiPe6BHzwHa7+9bpl1PTpbPzw633Y9a2OkPURZaj0RCDE9xz8HPoYZmz0990c9PAnXPcDwwzzhvpQ9n8AWvYo2w7z2OJ+9g5C5PRGQS7yuRLM8QL/EvKlSxb2m2bq9eleEPas6Or5ij9E9+HenvKC05b32kps87QQzPp3pn7vikB69JwAmvRIYi73BzH69UAyYvWdLXrwH2TS9CgDXvbXXRj3EgEc9nWjPPJyEJr2++LQ9BcbFPaCnb70Zzr89356hPajYFL3zk9y8k1ZWve74Mj6lQBc+K4CaPeWsuj3e48S9Tp4avitd4TwknNs9TCs2PT8oDbwmXHE9DV+oPcwqPLxvkR48Z92WPYpiij1zrS28WtygvVwGez25IR89ppBgPOZ3zrxDl349jUWEuvqHoD1y5Cq9DD+GvSiUjD0FiKi8yJjXPQWkrj1uw1a94+/4PDKiPb0XlV89Ycm/vbkfJLye0CG91OwtPdmqIr7ygt67+67LvGxQbj1cD6G8GyjevF0jGL0cQbE9ZaopvcxFMD7Fndk8DjNzu4FF8r19aqQ82SbbvQEiHD7Z1mG6WUgOvTjUEj18CJg838HjPCmhFT37ago+PeiPu1id5L0Q9aw8L4EGveBra70QL1U9ktrcvJX+xL3yAPY9kU8nvQYyqz3p2hG9TYisu19zyrwoxTM8SLxNu3Uhhj3tG2W8iaj6vAwbvT3DfvG9RKeZPduUtTxO0So9+cKJvS0ykrwf02Q9dTfbPDVpFb0VXmq8pmPRvZHxJL2vuGM9ryWivhA46b6hwnC+zg6pvpu3Sr12awC+6HfUPrDjIbwX3rA9u+QFPme0WL5olT+/04XMPWDWdb8KeFS8NKXRPUPfST5vkGs9kQWgPV36or3F1m25/nN/vQmrFL3fI2g9YWgOPhthXrwsFCo+YNntvOYIjTxVz7I9U91ZPUNaKT200tM9x02pPdWiwTzq2p+9QYaLPb+s6zqqOB29Y0gMPtFSMz5RvIg9SLgxPS7XND1VoIo8e2Q6PmeM5j3IvOS9xzUEPaUQIT7W318+i1SnvbLSOr0Ntbm9WVvOvXtKhD0Cy829WpREvV+frry/4OU9Kmwevab4A74IOlQ9gxOSvTAasLwtP9g9rLvHvLVIOT0TvIW9azCuPetFK75GlTM+rAx7vt0Nnr3a2uo7O8kcPoHb1b0HnLs9EISKOkSn5T3VMJq+hB8ovqgVO75i0ka7GN8XvHtvWzyblIQ+vaSCvk2nYL45uqQ+2sQzvszNk75l+QM+yI61PZFqSb49PoK9SLAQvptbNz7hZhi91mFsvgZgbzwLEK2+d8navdqiDD73+1w9PtKuPS4fRr2gvzI+NjYYPT7Xi7458iA+8GCjPbqAlTz/1rw9r7+Yvdk49j0EPMk97zK5Pb1xh72vkgK9k+wSPiMajz2Ebq+9pzl5vSaiib0hbj69CcfAvcbkhL1cd2C+wXNSvpOjm74tYzk+yN68vRbH4r5udEc+dltFvsxyhT7ANUQ+nY/0vc+4yr5n9p0+wB8IPRQ+jb7wPyw9bcr3PDfF3T32IKw98QpxvcU5nT0wJSc9PrDEvUEWM7wIKCU+QX8OPQV6zjwW0Gk83l9UvdKfCD7koKs9nldYPS9eZ7022Qa+Z2jhva+wo732U2E9aNXtO1GJLb0KgCK9Uv0qvQZaFz5a9uA8zAkyvkT2xz3X5we+NUrvuvWqzr3sVVq7RaxHOrl9zT1RXji7EKFfvVB1uz1liiA9ll8XPmWmqj1L2ie8Imf0u595CD6El6G9AE+WPWKMxz2Rs829g2oZPX2XzbwRwEY+Yt24vcTIrTw0RM89xdgovhjIUj3A5Se9webkOmSJkb3XWlc+9SbXvVYcrT23URs+b+SfvQG3FL2UbpY9f7gAPZfFU74mObO9gbyuPRM1Xr31uss9f+SLPeR6cL06Isc95zwhPbnXUL11j8m9weeaPUDIfz0RI2I+7IIAPtreerwtd4A95hLyvV2CCD5hwhK9C7YBPmsdOD3M0my9Gx1nPDvETD28rHk9FBMIPlQw6DyDExg9yeqdPUMy4T2RqnU9f9pNPaxRcb0MNqG8WT1LPc6g9Txnk4a61vGYPVFVwzsHIbO9hPC5PahCOjys1LQ8FJAgvUz24L3mJ3y9B5H4PYvMAT6yAFY9csq5PGW2fD3wFUg9IQMAPbZQ1bwxdag9rIeSPfpksr1dMbw9RJeSvRH9473k10S9C+oHva05fL3Wb8A9WsONPXDXGT6bGBY99AQrvF6h8rwhjai9gqlBPuuV7j2T1L892ByQPYtrhT1Jdzc9k2BUPUmBVLwsOAY+db70PPLOzr1fzhM9QyIEPlfK+LxoArO9nWHIPbqc+L2/Iis9IbJgvVAwKT3dGQs+dxmtvVt+UD7q11k9Om7MvRkdBT5RE5O9WzrDPT9UELz+m2O9CVdRPsoR4D3eFxs9y7zpPYz6GD7Scm4+iT+ePfPFxz1adrs97w8pvTPaILqwEg0+DrL9vGl9Pz2sjy89GKXxvVKAhb2BMRc+/Gm6PEU2Ez1/NQw93fehu/VGHj2LQpY8Op7xvQ8vrz0ytn+73LcrvajyejxALCG+WTy/vT7Bw71NCzy+XeHdOzfHjbw7KY096jm0PfCm+L3ztqK9Vl8UPS/fGz1Ksds9x8BQvYM1KLsnRN69jydYvHWoRT0vuqE9lqIrPU/lC7tZ8LE9GW1YvPd6Ez5c9l29lE8fPZo/r7mFkKy9w9mzvecYHrxEqUs9ZdsEvgVGg7uT4Gg9okGBPW3BK7zwA549MKfxvJpdE77fwBG9CWlfPViq0b2OLoi9iaxyvUUbyr15A6E9aEtUvYf9Br6avgK+JGTFvZmyhr2LCye+v4h4vNHgm7ya28o9eW94vUqF/TziWQc+FC/EO9OTsb15H7E91KkHPXdmjz3Ao6A9L1r0PUAP070LBBI+zZOvvSmqFT0cZLq8/GNCvWkxnj0JMqS8ckoZPo8XRz3Oepc9dy4IPRMg3Ty4eh48TRJzPWicDr6RXOI9Krm+PT/lLD6k/JO93GGRvUVaHT2+EbQ8JNf2PGzPHzyKkOS9NKTWvXSG1D1ieQQ+lKPiPHQpBb18d9Q9qJSdPZovor1j1y29Ob+1PUh8Vb3f5a49dSeAO3164z1CpL6901fQvFNWBbxM1u08MJEHvedA8r1TeLe9KtoUPT/xQz0qegA+hR2cPS37AD6SO8a8vKihPfABxL1McYy8zOgCPcPaxb2a9ks9E6soPTCwUD3qWAs+ixGnvXtExT2KrvI9hy5PPN+xxb3sDNI87tGyPaC/pz1JKXU9nTxYvUEabb0BQ7M9mR2+PI/NFb0eggY9OTlpvdSZm7tppNi9N2TQPQV5Yz35GMW83+G9u/XXP71F0WW9ujalvFZgkj1+SHu963j9PPJZ+zwj+tg9eHIIPm3sO7wFeJa5cyjuPOERpb1lPIG8VC+NvaAnN72C6K28XU5MvROj7zzWHSM8TjpbPXyZuj1YhDW8j3b3PbffST7CM589pYTEvar4ub0TMii9Zlg8PhIHIz7d+Na8tpHfPc0MC76vskO+3mWpvhpLQj6tlsO8hr0CPiihzL2NDf49Lxt5vMWjij12bqg9+Q5hvQJnCD0dotM9keg6PYE/LT5Gr4S9MIRGvTPNYz2cdCS9LgG2vUWKrTwGLK09sR7EO+JuKD5TfQM+0xkOPWP9Yb09HWe9xXQDPhwgmDy/jEY+a1Lhvam4vjvIamg9Y61TPbRZWDxU6aU9uS7EPGJQkbyHh7u8aC94u6OfM76jZB486zWRvSJsJjySiAs9LF3evAgJpbyVx/E9NqVAvoKp8D1J7+08jJzWvIcmpz3ufYq7G+dlvnes7bs1dlm9SHs2PWGy1T0Kuri+R4gDvs+nFr6OtTi93xHVvb2yX744rWw9xZOpvW3cEr6ssR++Ls0IPWJIBj4q20a9vVSyveb5rbw3fI08PT6RvYfgwj3tOni9zBPdvcInED5itro92OUUvpGMtzykAWq+L0IpPRXtLr4bG7c9fDELvucLHr9ZsMq9rZCKvXjipL3y9ho+wwMMPrqWGr6b7BI+kx0JvBSZEb2ro2O962+vPRK4Oj098849G3KEvZQtfj1Dwrg9wtkAPOkkCD12ZAk+flmJvXFLvrxpHrc97439PW8m0z1kkjm90nmMPOG+A77sKh08oE+MPCW/bT1Nj9m9opVoPXWSFD4L8Jm8KSfJPUXWJr0zCC4+ouU+vp78pD3lcvg9VWLzvceBXL07wrM9LdvDuhGuK729D+W9QDgHPbsPS71nPBM+dF66POAqjLwoi509MbglPGLMsj3ubrQ9SoOFO73HnrvX2UG9Ep6oPBc0lT2M6co9oHAOvnUcwj1ThTe9xesBPvJVGj5Cjyu9I0yZvApKyLyPQTQ9j6NMPadHc7z6J5y8c1HPPdWQFj4sRxo+rVT4O6VvKzzl+MW6O3ctPU1Yrr3A/z8+FxH0PdUYyb2HzYc94f+1PbbDaDupSeY9rz82PGb6MD0dqlc8/VxzPT8yZj06vsq8x1GWPWe+970LCoe8EvB3vHpqTL1174A9OoGpva+4pb0B8eE8Mq1sPaxEdzvM2sW9ckwuvgp8hz3Hu5w9yBRlPa0PdrwiyRo9eabbvKgVfD3wUTI9YtYCvYqfMT2f09A9Tf76vPC2cj04CYI9YvVQvGBctT+wOOG+c7U3vjofp77Y7iw9kjkqv+fRDT+Hbnm+U+/XvhZWyT6N3sy+1ZuDvsOVoz7ayfe++AmLvgepnT1nfDK9";
